/**
  ******************************************************************************
  * @file    speech_commands_model_data.c
  * @author  AST Embedded Analytics Research Platform
  * @date    Fri Feb 10 02:17:13 2023
  * @brief   AI Tool Automatic Code Generator for Embedded NN computing
  ******************************************************************************
  * @attention
  *
  * Copyright (c) 2023 STMicroelectronics.
  * All rights reserved.
  *
  * This software component is licensed by ST under Ultimate Liberty license
  * SLA0044, the "License"; You may not use this file except in compliance with
  * the License. You may obtain a copy of the License at:
  *                             www.st.com/SLA0044
  *
  ******************************************************************************
  */
#include "speech_commands_model_data.h"
#include "ai_platform_interface.h"


AI_ALIGNED(32)
const ai_u64 s_speech_commands_model_weights_array_u64[ 22111 ] = {
  0x3e2ef9e83ddb87c5U, 0xbdbe19f7be94ff1eU, 0xbe3cdd4d3eb07ac1U, 0x3eba50e7bdf4303bU,
  0xbded9f0dbe5cb123U, 0x3e18bd98b9dfa2c3U, 0x3dd706b73e0f44dbU, 0x3ba8276bbe159c9bU,
  0x3c7ccb6e3c1ae4f8U, 0xbbb6e2b0bdcc2d0dU, 0xbd99b8b93b971e6fU, 0x3cbd034bbc5776b4U,
  0xbc402afabceefe61U, 0xbda6df753d0e19eeU, 0x3d6645003db9ef6eU, 0xbdcd04db3c3bfbdeU,
  0x3da568dabd02bb66U, 0xbd82af19bdbf7e6fU, 0xbd7aefb23c8a9a75U, 0x3dc28e4c3c56d73aU,
  0x3d0fbc55bcb0407eU, 0xbbd8ae64bda52730U, 0x3be6a450bd647db8U, 0x39ea2e283da7022bU,
  0x3d702dc0bcca0796U, 0x3c97e489bd85ff1bU, 0x3d8e26a53d7dd943U, 0x3e4783563def0408U,
  0x3d6ab029be8e1e55U, 0xbe53d9b83dd1982eU, 0xbe4cb182bc76eb73U, 0xbc2a44b13e0f53efU,
  0xbce478cabc921e3fU, 0x3cc22a203bc48543U, 0xbda33c7a3dd28162U, 0x3d79f3673db2d191U,
  0xbe948439becf919fU, 0x3effe0d83d8b84fbU, 0x3e7e5afabf009e4eU, 0xbf1306953e782c53U,
  0xbe14ed09bdab517bU, 0xbe05075c3d57ef50U, 0x3c5d2acebe3d06f7U, 0xbd86e41abe26eab9U,
  0xbd13794abc96beb5U, 0x3dd15c263dc11ae5U, 0x3e0b5b70bca58683U, 0xbdd6dd623dc5b563U,
  0xbe79990a3de45d94U, 0xbea1ca3dbe83667dU, 0xbe9b6d4b3d9d0826U, 0x3e18cbcebe3e8784U,
  0x3e4b0d4f3c394afdU, 0xbdf6fb86bd9c9d31U, 0xbe3df4ce3a21c0d8U, 0xbd9832783d683a0aU,
  0xbda2a0f93ba87da0U, 0x3bff5ce4bcf2bf66U, 0x3deffee03cbc15e1U, 0x3d8e88643e1d2c29U,
  0x3e2bc2cabd8a7a67U, 0x3e2bf38d3e7c896cU, 0x3e1b0c0abc976594U, 0x3d3a759a3d32be51U,
  0xbe06df2cbb200303U, 0xbb9731543d125cabU, 0x3d4957eb3e2912a5U, 0xbdf8d8f9bd92a546U,
  0x3dc8d16b3c9ffda6U, 0x3e49d7003e30c289U, 0xbb53852cbde7c889U, 0xbd7fd6283cf3f7efU,
  0xbcb3eb2c3dd96d8fU, 0xbcde062bbeb76e52U, 0xbdf0b8ae3e1b0066U, 0x3e34bde4bd65e37dU,
  0x3c7a726dbd2c5199U, 0xbeaf712d3e48bea1U, 0xbe175f40be93966fU, 0x3d854c4ebe4215a1U,
  0x3d04c4e7be0e87afU, 0x3d4499a13d3e0f2bU, 0xbda1666a3e2cee21U, 0x3d89b9ebbe58b184U,
  0x3da91dd3bd9a02b3U, 0x3daad029beb75922U, 0x3a5f9f673e03bbc5U, 0xbdfaa1cdbce00127U,
  0x3ded445cbdb5e5e2U, 0x3d1d0a083d09bc5cU, 0x3d436d5bbd7f8bcdU, 0xbe80b98e3d024748U,
  0x3db478cabe1e0ef6U, 0xbc0ecb22bd516466U, 0xbdc384d5bc22e726U, 0xbeaaa7c73d2d364dU,
  0x3d84f68ebe02d2b1U, 0x3db046383e40e0d5U, 0x3e08d5393e141421U, 0xbdafa7f53dbe8abfU,
  0xbd8df8fcbe858036U, 0x3d8cf4eebd8190c8U, 0x3c6e6332bd143ea6U, 0xbe9271c03e42c70bU,
  0x3da3e768bdf69c83U, 0xbaf528303d76d592U, 0xbbf7f1dd3d7d3651U, 0x3c12ff103dac0d8eU,
  0xbebd3184bde029ccU, 0xbe1df5a6bba66ca1U, 0xbc5b10653d6eca03U, 0x3d4032a03d329a25U,
  0x3da66038bf136dc8U, 0xbdac21223d0df89fU, 0x3cfd8f5dbcfde9e8U, 0x3d876028be222026U,
  0xbda53b50be16f2ddU, 0xbcf2591bbe18ae49U, 0xbe3752823cd7ec4fU, 0x3e5a2022bddc4febU,
  0x3d63b9b5be4b4f4cU, 0xbec1ea5cbd5ecd07U, 0xbdcff6fd3bf4b72bU, 0xbd46a7eebc9c2d17U,
  0xbe1e3829be09477eU, 0xbcaeff23bcff9a2cU, 0x3eec654e3d949d87U, 0x3e2fc800bd423f6eU,
  0x3d1313b3bd95d2e4U, 0xbe297005be0f9f13U, 0x3b45db6f3ce70950U, 0xbe4f31e03d399ea4U,
  0xbba95979bde021e4U, 0xbe84e88fbd8237bfU, 0xbdd06bb1bde076d5U, 0x3f02615f3dbb3da1U,
  0xbd8604913e4d0098U, 0xbe0895eebe4da4f4U, 0xbdd65c403e3f2ce3U, 0x3c533d8e3dce3f86U,
  0xbda83ab63e153dd9U, 0x3e16848b3d5d2b60U, 0xbe17f88fbdb12696U, 0xbdb66be73d849862U,
  0x3db740ba3da3ab12U, 0x3da4a716bd9813b9U, 0x3e5f9ce1be19c2f6U, 0xbdba52843e1b2d5dU,
  0x3de27f27be0c75ecU, 0x3df1578f3e802aeeU, 0x3bdf842bbe770474U, 0x3d6aa1eebe391854U,
  0xbd43048b3ce614d7U, 0xbaa1f2e5bd95edc2U, 0xbcd1ffde3e43ed27U, 0xbd9df242be41726aU,
  0xbead9ce2bd8c6df0U, 0x3e2295b4be8f951cU, 0x3d15f9953da07d49U, 0xbc15706abe2fb0d2U,
  0xbca56443be04cd66U, 0xbe83bd59be46f590U, 0x3eaf83bdbd36ac2fU, 0x3dd276febe55e185U,
  0x3d927344be3087beU, 0x3e40b4c03e01a1b5U, 0x3de8b16e3dffabebU, 0xbda023413d49368fU,
  0x3bb7778fbe2d3941U, 0x3e2affa03e7a7bd3U, 0xbe8deb463e37ca37U, 0xbe5ea7f7bdc25750U,
  0xbd1656853dc569f9U, 0xbefba0d8be4bd0c2U, 0xbea3712f3e30178bU, 0x3e85d9003d8fe5e1U,
  0xbb8c58143bd3c101U, 0xbe5608793d9847d6U, 0x3e5a3054bddbff42U, 0x3e24b06abcb0a0c8U,
  0xbdc0e1f73dcd9b99U, 0x3e551c05bd8484ecU, 0x3d8d9518bdc42795U, 0xbeb36105bcf21b73U,
  0x3e10ee783da1ce1eU, 0x3d9c22febd9685cdU, 0xbd82c3febd9e7a51U, 0xbe01485fbe394058U,
  0xbc53eef63db9b86cU, 0x3d742e493e120cd6U, 0x3db9d8283e08b604U, 0xbe0f9369bdf04758U,
  0xbc9086833d68bd08U, 0x3d7311bc3c55938bU, 0x3d78c19fbdc87ff1U, 0xbe15ea83bd96e482U,
  0x3ddcf19dbe43951cU, 0x3e4035c5be49f3f0U, 0xbe6fe08abe0bfa89U, 0x3d35e50bbe10e64dU,
  0x3c62b9b2be1d8f33U, 0x3cce8d593d9fa754U, 0xbd840f943dcdd102U, 0xbe80b8bebc5a1c08U,
  0xbda6fe36bdb44c13U, 0x3e474f413e29efbbU, 0x3be6d30a3e67da20U, 0xbf241fa0be2ec222U,
  0xbc0ba3f9bdc99453U, 0x3c8c04d2be8966a9U, 0x3e37bfccbcb5ce71U, 0xbec140c1bdd3ee3bU,
  0x3b65d2f5bdfbd58fU, 0x3c3095263e409e31U, 0xbd4af72d3c0d7006U, 0xbdee7f67bbb73debU,
  0xbda9dbe4beb06080U, 0x3db228fc3e339e96U, 0xbe80f9733d78b05fU, 0xbe9fca13bdc58ea5U,
  0x3d8095893da476c1U, 0xbee62e68bd05690cU, 0xbeedcf4d3eabbb2dU, 0xbc0cc44d3b26b06bU,
  0xbdd2b86fbd8127d4U, 0xbe2ec8453b26693fU, 0xbe258ce3bc869a33U, 0x3e5845be3dd16d25U,
  0xbd39cf25be1ca7faU, 0x3e3c8c2f3d1e9c47U, 0xbd63c5d1be99171fU, 0xbe668a623d88a20bU,
  0xbd1e9a773c7ce650U, 0x3e006be4be1f598cU, 0x3e2cc08a3dcc26eaU, 0x3de6b1693c96e9a6U,
  0x3e7aa2d8bb49f377U, 0x3c0179b13ea7668aU, 0x3d267340bdda0db3U, 0x3dc8e3aa399492c2U,
  0xbe81b6ee3d8a9286U, 0xbe00a5043e4b3ed6U, 0xbe8039753e5a524aU, 0xbd04ce2e3dd7d489U,
  0x3bdc59b93c27af46U, 0x3d974be13c0bf8daU, 0xbd9653773e99752bU, 0xbdf50a5fbd838eebU,
  0x3c9625f9bd133232U, 0xbe2d201fbdef8fcaU, 0xbd3311d13d3f976cU, 0xbda57d66bd8dca4cU,
  0xbd88cef8be253baeU, 0x3e507a14bd0950f5U, 0x3dc1cffbbe8fbbfaU, 0x3dfb9a803d3444f6U,
  0x3c684d683dafb3c9U, 0xbe0958a6be86ec44U, 0x3b7c4a0dbe0f3d6cU, 0xbe26f2bb3e188e5aU,
  0xbba2ded7bd4bc0e9U, 0xbd0d0e563e16b14bU, 0x3e0d853c3d8a1f3dU, 0x3e9764fb3cadd5edU,
  0xbd909a93bd38f6eaU, 0xbe3d2429bec51e6cU, 0xbe2df27cbe1a1238U, 0xbdca9cf53e4c31c4U,
  0x3e1c1db8be2cf4dcU, 0xbd1cf3e6be6d63ccU, 0xbdf53c123df0ab5dU, 0x3d7288a53d774598U,
  0x3d165bd6bd7b44ffU, 0x3ab75e1e3ca17280U, 0xbd2def7ebe04884fU, 0x3e3598293da6e8ddU,
  0x3df6b5a1bdae5a6eU, 0xbe8d86043e6126ecU, 0xbdcb372abc95e7d2U, 0x3e09ac523e8f1bdbU,
  0xbdb3bb6b3db77b69U, 0x3d5dd59ebe2a4172U, 0xbe3ff0903dc06b7dU, 0xbe114a9cbcfe393dU,
  0x3e131811bbcf7f80U, 0xbda6ca823e5edea5U, 0xbdcb1b153d4e798fU, 0xbdfd65db3d835f56U,
  0xbde581acbd8c62e9U, 0x3d93bf9e3ddc9ce5U, 0x3dada1f7bca1adbdU, 0x3e728c393bdc687fU,
  0x3b09779abe36b57cU, 0xbd81a035be35d099U, 0x3d9dfe563d8d147bU, 0xbed02cde3e39353eU,
  0x3be98d09be456a4aU, 0x3e658c703dc87fd1U, 0x3dbe4b66bcbcfb10U, 0x3e0735cebd8d9e9eU,
  0xbe31b417bd394decU, 0xbe6ca16c3dcfc319U, 0xbd6d159e3e469ef4U, 0x3c82b984be2effb1U,
  0xbe99b811bebe25c3U, 0x3b2bc3683e894fc3U, 0xbdd80fc3bdcfcbd3U, 0xbd5b4cd13d6b7a5fU,
  0x3de5ac15be70ebf9U, 0x3c5775483e11aca3U, 0x3e4caa20bc8f0287U, 0xbd1357503cf5648bU,
  0x3cbafdd3bdc0fb94U, 0xbe596ca5bce3acc4U, 0xbd9214213e553d48U, 0x3e9406c33d19c0d7U,
  0x3da99ffdbe15e2c9U, 0xbe2d6a0c3f0b417eU, 0x3e033c73be0a8b38U, 0x3e591cefbee6641fU,
  0xbcc66ed0be44cad3U, 0xbe007c12be4d96caU, 0xbdae9aa83cd293b4U, 0x3e1f5432bdb4d207U,
  0xbca278563bb8522bU, 0x3e53eac5bea2c96bU, 0xbdcf99013e2077e1U, 0xbe0d418ebe4424b0U,
  0xbf2e4d3dbeae149cU, 0xbf161a933e8f93ccU, 0xbeda02c7bf21fce8U, 0xbf4dd596bf8ab01bU,
  0xbd8e53a43eb1e88dU, 0x3e31e88d3ded3612U, 0x3e88657dbc3dc4dbU, 0xbe49a129bef9125fU,
  0x3cbdc4db3e49a129U, 0x3ded3612bc3dc4dbU, 0x3e1a2ff2be260c40U, 0xbdd57d76bf056e6aU,
  0xbcbdc4db3ea01e19U, 0x3e0277573c3dc4dbU, 0x3e027757bda60c40U, 0xbe49a129bedb6b9dU,
  0x3d0e53a43e827757U, 0x3e260c40bdd57d76U, 0x3dbdc4dbbd3dc4dbU, 0xbe827757bebdc4dbU,
  0x3cbdc4db3e557d76U, 0x3e0e53a4be1a2ff2U, 0x3d8e53a4bdd57d76U, 0xbdbdc4dbbe6d3612U,
  0x3c3dc4db3e0e53a4U, 0x3e0e53a4be260c40U, 0x3c3dc4dbbd8e53a4U, 0xbdbdc4dbbe6159c4U,
  0xbcbdc4db3ded3612U, 0x3ded3612bdd57d76U, 0x3dbdc4dbbd6d3612U, 0xbe1a2ff2be3dc4dbU,
  0xbd8e53a43e31e88dU, 0x3d8e53a4bd0e53a4U, 0xbcbdc4dbbe0e53a4U, 0xbe1a2ff2be260c40U,
  0xbe8e53a4be027757U, 0xbdd57d76bd8e53a4U, 0x3d6d36123c3dc4dbU, 0xbd6d3612be1a2ff2U,
  0xbec9a129bd0e53a4U, 0xbd6d3612be827757U, 0x3da60c403d6d3612U, 0xbd3dc4dbbd8e53a4U,
  0xbe8e53a4be31e88dU, 0xbcbdc4dbbe557d76U, 0xbe0277573e557d76U, 0xbc3dc4dbbe027757U,
  0xbe31e88dbd3dc4dbU, 0xbe260c40be9441cbU, 0xbdd57d76bded3612U, 0x3d0e53a4be260c40U,
  0xbe6159c43cbdc4dbU, 0xbe49a1293e79125fU, 0x3da60c403c3dc4dbU, 0x3d3dc4db3e0e53a4U,
  0x3ded36123dd57d76U, 0xbe9a2ff2bdbdc4dbU, 0xbcbdc4db3e0e53a4U, 0x3e557d763da60c40U,
  0xbd3dc4db3dd57d76U, 0xbe1a2ff2be0e53a4U, 0xbda60c403e027757U, 0x3d8e53a43da60c40U,
  0x3c3dc4db3e0e53a4U, 0xbe3dc4dbbcbdc4dbU, 0xbda60c403d3dc4dbU, 0x3e49a1293e3dc4dbU,
  0xbda60c403e31e88dU, 0xbe3dc4dbbd3dc4dbU, 0x3d0e53a43cbdc4dbU, 0x3e8277573da60c40U,
  0xbe0e53a43e260c40U, 0xbda60c40bd0e53a4U, 0x3d3dc4db3cbdc4dbU, 0x3e0277573d8e53a4U,
  0xbd0e53a43e0e53a4U, 0xbe6d3612be1a2ff2U, 0x3cbdc4db3d6d3612U, 0x3e3dc4db3ded3612U,
  0xbd0e53a43d8e53a4U, 0xbda60c403dd57d76U, 0x3cbdc4db3e027757U, 0x3e0277573dbdc4dbU,
  0x3c3dc4db3d0e53a4U, 0xbc3dc4db3da60c40U, 0x3d3dc4db3e3dc4dbU, 0x3d6d3612be557d76U,
  0x3cbdc4db3e0e53a4U, 0x3da60c403da60c40U, 0x3c3dc4db3e027757U, 0xbcbdc4dbbdd57d76U,
  0x3dbdc4db3da60c40U, 0x3dd57d763d3dc4dbU, 0x3dbdc4db3c3dc4dbU, 0x3d3dc4dbbe31e88dU,
  0x3da60c403e6159c4U, 0xbdbdc4db3e6d3612U, 0xbda60c40U, 0x3d8e53a4be88657dU,
  0xbf2ef17a3d8e53a4U, 0xbe49a1293e31e88dU, 0x3e49a129be31e88dU, 0x3ea01e19bd8e53a4U,
  0xbeed3612bded3612U, 0xbd3dc4db3e027757U, 0x3e31e88d00000000U, 0x3ec3b302bdbdc4dbU,
  0xbeed3612bd3dc4dbU, 0xbe260c40bd8e53a4U, 0x3da60c40be260c40U, 0x3ecf8f503d3dc4dbU,
  0xbf1d2705be6d3612U, 0xbe31e88d3e31e88dU, 0x3dbdc4dbbe0e53a4U, 0x3e8277573e1a2ff2U,
  0xbf290353be0e53a4U, 0x3d0e53a4be3dc4dbU, 0x3d6d3612be0e53a4U, 0x3ebdc4db3e0e53a4U,
  0xbf08657dbe027757U, 0x3cbdc4dbbdd57d76U, 0x3da60c40be0e53a4U, 0x3ed57d763e49a129U,
  0xbeabfa66be6159c4U, 0x3dd57d763d3dc4dbU, 0x3d0e53a4be260c40U, 0x3ecf8f503ee159c4U,
  0xbec3b302be027757U, 0x3d0e53a43e1a2ff2U, 0x3ded3612bd8e53a4U, 0x3ebdc4db3d0e53a4U,
  0xbe3dc4db3c3dc4dbU, 0xbd0e53a43dbdc4dbU, 0xbdd57d7600000000U, 0x3e9441cbbdd57d76U,
  0x3e6159c4be260c40U, 0xbe49a1293dbdc4dbU, 0xbdbdc4dbbded3612U, 0x3e1a2ff23e0e53a4U,
  0xbd8e53a43ded3612U, 0x3dbdc4db3da60c40U, 0xbe88657dbe027757U, 0x3d0e53a43e0e53a4U,
  0x3e3dc4db3d3dc4dbU, 0xbcbdc4db3c3dc4dbU, 0xbe827757be8e53a4U, 0x3e0e53a43e8e53a4U,
  0x3e49a129be260c40U, 0x3ded36123e557d76U, 0xbe0e53a43ea01e19U, 0x3da60c403e557d76U,
  0xbe8e53a4be49a129U, 0xbe1a2ff2be260c40U, 0x3d8e53a43e260c40U, 0xbdbdc4dbU,
  0xbd0e53a4be027757U, 0x3d3dc4dbbe557d76U, 0xbd6d36123e1a2ff2U, 0xbdbdc4db3e1a2ff2U,
  0xbcbdc4dbbe027757U, 0xbe827757U, 0xbd0e53a43d0e53a4U, 0xbe6d36123dd57d76U,
  0xbea01e19be260c40U, 0x3cbdc4dbbcbdc4dbU, 0xbc3dc4dbbd0e53a4U, 0xbe0277573e0e53a4U,
  0xbe260c40bd3dc4dbU, 0x3ded3612be9441cbU, 0x3d0e53a43d6d3612U, 0x3d3dc4db3e31e88dU,
  0xbeabfa663c3dc4dbU, 0x3d8e53a4beabfa66U, 0x3e260c40bcbdc4dbU, 0xbe49a1293cbdc4dbU,
  0xbdbdc4db3da60c40U, 0x3e3dc4dbbe6d3612U, 0x3d6d3612bdbdc4dbU, 0xbe557d76be0e53a4U,
  0xbe49a129bda60c40U, 0xbd6d36123da60c40U, 0xbe6159c4bd0e53a4U, 0xbe88657dbe9441cbU,
  0xbcbdc4db3d6d3612U, 0xbe027757be0e53a4U, 0x3dd57d76be6159c4U, 0xbed57d76be6159c4U,
  0x3da60c403dbdc4dbU, 0xbe31e88d3d0e53a4U, 0x3e1a2ff2bd0e53a4U, 0xbed57d76be9441cbU,
  0xbd0e53a43c3dc4dbU, 0x3e49a129U, 0x3e1a2ff23d0e53a4U, 0xbe557d76be260c40U,
  0xbecf8f50bc3dc4dbU, 0xbda60c403dbdc4dbU, 0xbe827757bea01e19U, 0x3e79125fbecf8f50U,
  0xbdd57d76bd3dc4dbU, 0xbe260c403d6d3612U, 0xbe0e53a4bd8e53a4U, 0xbe6159c4be6d3612U,
  0xbe79125fbdbdc4dbU, 0x3d8e53a43e3dc4dbU, 0x3cbdc4db3d6d3612U, 0x3e49a129beabfa66U,
  0xbe31e88d3d6d3612U, 0x3d6d36123dbdc4dbU, 0xbdd57d7600000000U, 0x3e8e53a4bf1a2ff2U,
  0xbeabfa66bdbdc4dbU, 0xbe9441cbbda60c40U, 0x3c3dc4dbbcbdc4dbU, 0x3e3dc4dbbf0b5c91U,
  0xbe79125f3d6d3612U, 0x3ded36123d3dc4dbU, 0xbded3612bec3b302U, 0xbe557d76be49a129U,
  0xbe9441cb3ded3612U, 0xbe0e53a43dbdc4dbU, 0xbe027757bec9a129U, 0xbd8e53a4be6159c4U,
  0xbcbdc4db00000000U, 0xbe0277573d3dc4dbU, 0xbded3612bded3612U, 0xbda60c40be260c40U,
  0xbdd57d7600000000U, 0xbd3dc4dbbdbdc4dbU, 0xbc3dc4dbbeb1e88dU, 0xbe6159c4beb7d6b4U,
  0x3d6d36123e6159c4U, 0x3c3dc4db3d8e53a4U, 0xbdd57d76bded3612U, 0xbd3dc4dbbe49a129U,
  0xbe0277573ded3612U, 0xbe6159c4bd0e53a4U, 0x3c3dc4db3d0e53a4U, 0x3d0e53a43dbdc4dbU,
  0xbe1a2ff23dd57d76U, 0x3c3dc4db3cbdc4dbU, 0xbd6d3612bd6d3612U, 0xbe31e88dbe1a2ff2U,
  0x3e9a2ff23d0e53a4U, 0xbf0b5c913ea60c40U, 0xbeabfa663edb6b9dU, 0xbdd57d76be260c40U,
  0x3e88657d3d3dc4dbU, 0xbef324393e3dc4dbU, 0xbe31e88d3eabfa66U, 0x3e49a129be79125fU,
  0x3eb1e88d3da60c40U, 0xbeb1e88d3e9441cbU, 0x3e0277573ec9a129U, 0xbe557d763d0e53a4U,
  0x3e9441cbbd8e53a4U, 0xbedb6b9d3e9441cbU, 0x3d8e53a43e8e53a4U, 0xbe6159c4be6d3612U,
  0x3e557d763da60c40U, 0xbe6d36123ee747ebU, 0x3e1a2ff23e88657dU, 0x3e49a129be9441cbU,
  0x3e0277573c3dc4dbU, 0xbda60c403e0e53a4U, 0xbdbdc4db3e79125fU, 0x3e6159c4bcbdc4dbU,
  0x3e88657dbe88657dU, 0xbd6d36123edb6b9dU, 0xbded36123dbdc4dbU, 0x3da60c40bdbdc4dbU,
  0x3ec9a1293e31e88dU, 0x3da60c403e88657dU, 0x3e260c403ebdc4dbU, 0xbded36123c3dc4dbU,
  0x3e6159c43e3dc4dbU, 0xbe88657dbd6d3612U, 0xbe6d36123e8e53a4U, 0x3e0277573e88657dU,
  0x3ea01e193e31e88dU, 0xbe6d36123e79125fU, 0x3d6d36123ed57d76U, 0x3e49a1293e49a129U,
  0x3ebdc4db3e9a2ff2U, 0xbe1a2ff23d8e53a4U, 0x3d0e53a43e9441cbU, 0x3e027757bdd57d76U,
  0x3e0e53a4bf027757U, 0xbd3dc4db3e79125fU, 0x3e9441cb3ea01e19U, 0x3eed36123d8e53a4U,
  0xbd8e53a43e9441cbU, 0x3c3dc4db3e1a2ff2U, 0x3ded3612be3dc4dbU, 0xbd8e53a4becf8f50U,
  0xbd3dc4db3e8e53a4U, 0x3d3dc4db3da60c40U, 0x3c3dc4dbbef32439U, 0x3d6d3612beb1e88dU,
  0xbd6d36123d8e53a4U, 0x3dbdc4db3e0e53a4U, 0xbeb7d6b4bedb6b9dU, 0x3dd57d76bec3b302U,
  0xbd8e53a43e260c40U, 0x3d0e53a43da60c40U, 0xbf1a2ff2bea01e19U, 0x3e0e53a4be9441cbU,
  0xbd8e53a43e260c40U, 0x3cbdc4db3ded3612U, 0xbf6159c4beb1e88dU, 0x3da60c40be6d3612U,
  0xbded36123d6d3612U, 0x3da60c403cbdc4dbU, 0xbf5b6b9dbe557d76U, 0x3e0e53a4be31e88dU,
  0xbcbdc4dbbe8e53a4U, 0x3cbdc4dbbe49a129U, 0xbf1738dfbdd57d76U, 0x3e31e88dbd8e53a4U,
  0xbd8e53a4bd6d3612U, 0xbded3612beed3612U, 0xbe9a2ff2bdd57d76U, 0x3e027757bc3dc4dbU,
  0xbdd57d76bd6d3612U, 0xbdd57d76be9a2ff2U, 0xbe31e88dbc3dc4dbU, 0x3e8e53a43d8e53a4U,
  0xbe79125fbe0e53a4U, 0x3d6d3612be6159c4U, 0x3cbdc4db3d8e53a4U, 0xbe0e53a43d3dc4dbU,
  0xbe79125fbc3dc4dbU, 0xbda60c40bda60c40U, 0xbd6d36123d3dc4dbU, 0xbd0e53a4be027757U,
  0xbe1a2ff2be9a2ff2U, 0x3d6d3612beabfa66U, 0xbc3dc4db3d8e53a4U, 0xbdd57d763e260c40U,
  0xbe0e53a4bd6d3612U, 0xbdbdc4dbbcbdc4dbU, 0xbda60c40U, 0xbef324393e6d3612U,
  0xbd3dc4db3c3dc4dbU, 0xbe1a2ff23d3dc4dbU, 0x3d8e53a4bc3dc4dbU, 0xbef9125f3e0e53a4U,
  0x3c3dc4db3e0e53a4U, 0xbc3dc4dbbe6d3612U, 0x3e6159c4bd6d3612U, 0xbef9125f3d0e53a4U,
  0x3e49a1293dd57d76U, 0xbd6d3612bc3dc4dbU, 0x3e31e88dbdd57d76U, 0xbf0e53a43dd57d76U,
  0x3e827757bdd57d76U, 0xbe49a1293d6d3612U, 0x3dd57d76be557d76U, 0xbee747eb3d3dc4dbU,
  0x3ea01e19be3dc4dbU, 0xbd3dc4db3e8e53a4U, 0x3e1a2ff2be260c40U, 0xbf056e6abd6d3612U,
  0x3ec9a129bec9a129U, 0x3d3dc4db3dd57d76U, 0x3cbdc4dbbe6d3612U, 0xbe88657dbe31e88dU,
  0x3ea60c40be6d3612U, 0x3e31e88dbd0e53a4U, 0x3d0e53a4be8e53a4U, 0xbd6d3612be027757U,
  0x3e0e53a4bed57d76U, 0x3e6d3612be0e53a4U, 0x3d8e53a4bebdc4dbU, 0xbdd57d76U,
  0xbcbdc4dbbe79125fU, 0x3c3dc4dbU, 0x3dd57d76be9441cbU, 0x3e6d3612bd0e53a4U,
  0xbdd57d76bdd57d76U, 0x3ded36123cbdc4dbU, 0x3c3dc4dbbe88657dU, 0x3d8e53a400000000U,
  0xbecf8f50bea60c40U, 0x3d3dc4dbbe827757U, 0x3c3dc4dbbe9441cbU, 0xbe8e53a43e1a2ff2U,
  0x3eb7d6b43e0e53a4U, 0xbd6d36123cbdc4dbU, 0x3e557d763ea60c40U, 0xbe31e88dbe31e88dU,
  0x3ea01e19be027757U, 0xbd8e53a4be31e88dU, 0x3e557d763e827757U, 0xbe49a129bd8e53a4U,
  0x3ea60c40be260c40U, 0xbd6d36123d8e53a4U, 0x3e0e53a43e6159c4U, 0xbded3612bda60c40U,
  0x3e9a2ff2bd6d3612U, 0xbd3dc4dbbe9a2ff2U, 0x3dbdc4db3e557d76U, 0xbc3dc4dbbe827757U,
  0x3e9441cbbe49a129U, 0x3d3dc4dbbe260c40U, 0xbd0e53a43d0e53a4U, 0xbe3dc4dbU,
  0xbc3dc4dbbe9a2ff2U, 0x3c3dc4dbbc3dc4dbU, 0x3d3dc4dbbe027757U, 0x3d3dc4dbbcbdc4dbU,
  0x3c3dc4dbbef32439U, 0xbd0e53a43e0e53a4U, 0x3dbdc4dbbe49a129U, 0x3dbdc4dbbe0e53a4U,
  0x3d0e53a4be31e88dU, 0xbcbdc4db3e9441cbU, 0x3e3dc4dbbe0e53a4U, 0x3e31e88d3d0e53a4U,
  0x3cbdc4dbbded3612U, 0x3e260c40bdd57d76U, 0x3e31e88dbe3dc4dbU, 0xbe0e53a4bcbdc4dbU,
  0xbda60c40bda60c40U, 0x3e6159c43d8e53a4U, 0x3e027757bda60c40U, 0xbcbdc4db00000000U,
  0xbe6d3612beb7d6b4U, 0x3ded361200000000U, 0xbe31e88d3c3dc4dbU, 0xbe827757be0e53a4U,
  0x3ded3612bded3612U, 0xbe49a1293c3dc4dbU, 0x3d6d3612be3dc4dbU, 0xbe49a129be1a2ff2U,
  0x3d3dc4dbbe0e53a4U, 0x3dbdc4dbbd6d3612U, 0x3e1a2ff2be88657dU, 0x3dbdc4dbbdd57d76U,
  0x3eed3612bd3dc4dbU, 0x3e49a12900000000U, 0x3e3dc4dbbe1a2ff2U, 0x3e31e88dbcbdc4dbU,
  0x3edb6b9dbe6d3612U, 0xbded36123ea60c40U, 0x3e557d76bec3b302U, 0x3cbdc4dbbe260c40U,
  0x3edb6b9dbe9a2ff2U, 0xbe0e53a43ec9a129U, 0x3e6d3612bd8e53a4U, 0x3e9441cbbe0e53a4U,
  0x3f0b5c91be31e88dU, 0xbe6d36123e9a2ff2U, 0x3dd57d76bea60c40U, 0xbd6d3612beed3612U,
  0x3ee747ebbc3dc4dbU, 0x3da60c403e9441cbU, 0x3da60c40be557d76U, 0x3c3dc4dbbebdc4dbU,
  0x3ecf8f503c3dc4dbU, 0x3e1a2ff23e9441cbU, 0xbe31e88dU, 0x3d3dc4dbbe9441cbU,
  0x3e8277573dd57d76U, 0x3e31e88d3e1a2ff2U, 0xbe260c40bd3dc4dbU, 0xbe31e88d3ded3612U,
  0x3d3dc4dbU, 0x3e79125f3da60c40U, 0xbcbdc4db3d3dc4dbU, 0xbcbdc4db3e260c40U,
  0xbe0e53a4bd8e53a4U, 0x3e6d3612be1a2ff2U, 0xbd6d36123eb1e88dU, 0xbded36123e0e53a4U,
  0xbe1a2ff2bd3dc4dbU, 0x3dbdc4db3d0e53a4U, 0x3da60c403dbdc4dbU, 0x3e0e53a43ee747ebU,
  0xbf3acdc83d3dc4dbU, 0x3e31e88dbda60c40U, 0xbe3dc4db3c3dc4dbU, 0x3ea60c40bc3dc4dbU,
  0x3ded36123e0e53a4U, 0x3e027757be88657dU, 0x3ded36123edb6b9dU, 0x3e88657d3d0e53a4U,
  0xbd0e53a4U, 0xbcbdc4dbbd0e53a4U, 0x3d3dc4db3e79125fU, 0xbe557d76bdbdc4dbU,
  0x3ded3612be88657dU, 0x3d0e53a43da60c40U, 0x3dd57d763d6d3612U, 0x3d8e53a4be6d3612U,
  0x3e6159c4be3dc4dbU, 0xbe79125fbee159c4U, 0xbc3dc4db3e6159c4U, 0xbda60c40bf1738dfU,
  0x3e6159c4bd8e53a4U, 0x3c3dc4db3cbdc4dbU, 0x3e1a2ff23dd57d76U, 0x3d0e53a4bf08657dU,
  0x3da60c40be827757U, 0x3e6d36123d3dc4dbU, 0xbdd57d76be79125fU, 0x3c3dc4dbbec3b302U,
  0x3e9441cb3d0e53a4U, 0xbdbdc4db3dbdc4dbU, 0xbd6d3612be027757U, 0xbd3dc4dbbd3dc4dbU,
  0x3ec9a129be3dc4dbU, 0x3ded36123da60c40U, 0xbd0e53a4bda60c40U, 0xbe0e53a4bc3dc4dbU,
  0x3e31e88dbd8e53a4U, 0xbc3dc4db3d3dc4dbU, 0x3dd57d763e6159c4U, 0x3d8e53a43dd57d76U,
  0x3d0e53a43e827757U, 0xbe1a2ff200000000U, 0x3d3dc4dbbe0e53a4U, 0x3d6d36123e0e53a4U,
  0x3ef9125f3e31e88dU, 0x3d6d3612bd8e53a4U, 0xbdd57d763d0e53a4U, 0xbe31e88d3e49a129U,
  0x3c3dc4db3c3dc4dbU, 0xbd3dc4dbbeb1e88dU, 0xbcbdc4dbbe827757U, 0x3e1a2ff2be3dc4dbU,
  0x3e31e88d00000000U, 0x3ea01e19bea60c40U, 0x3e0e53a43d6d3612U, 0x3e3dc4db3d6d3612U,
  0xbd0e53a43da60c40U, 0x3e79125fbe3dc4dbU, 0xbd0e53a4be3dc4dbU, 0xbe260c403e1a2ff2U,
  0x3dbdc4dbbd3dc4dbU, 0x3e1a2ff2be6159c4U, 0xbda60c40be827757U, 0xbe027757be260c40U,
  0x3e6d361200000000U, 0x3d8e53a4bd8e53a4U, 0x3ded3612be0e53a4U, 0xbe260c40bd6d3612U,
  0x3e88657dbe31e88dU, 0x3e6d36123e8e53a4U, 0x3c3dc4dbbe31e88dU, 0xbe0e53a4bd8e53a4U,
  0x3e827757be827757U, 0xbda60c403ea01e19U, 0xbcbdc4db3d6d3612U, 0x3e0e53a400000000U,
  0x3e31e88d3e027757U, 0xbf08657d3d0e53a4U, 0xbcbdc4db3ded3612U, 0xbe260c40be1a2ff2U,
  0x3e88657dbda60c40U, 0xbeb7d6b43c3dc4dbU, 0x3e3dc4db3ea60c40U, 0xbee747ebbdd57d76U,
  0x3e0e53a4bee747ebU, 0xbe31e88d3ded3612U, 0x3e0e53a43e6159c4U, 0x3e260c403e027757U,
  0x3d8e53a4bedb6b9dU, 0xbdd57d763dbdc4dbU, 0xbded3612bda60c40U, 0xbdbdc4db3c3dc4dbU,
  0xbe557d76be027757U, 0xbd6d36123e027757U, 0xbded36123e9a2ff2U, 0x3e827757bded3612U,
  0xbe8e53a4be3dc4dbU, 0x3e9441cb3e0e53a4U, 0xbe49a129bd3dc4dbU, 0x3ea60c403cbdc4dbU,
  0xbded36123ea01e19U, 0x3dbdc4dbbe88657dU, 0xbec3b3023dd57d76U, 0xbebdc4db3da60c40U,
  0xbd6d36123e31e88dU, 0x3ded3612be557d76U, 0xbf08657d3d8e53a4U, 0xbe88657dbda60c40U,
  0xbd6d36123c3dc4dbU, 0x3d0e53a4be9a2ff2U, 0xbef324393dd57d76U, 0x3d0e53a4be0e53a4U,
  0xbdbdc4dbbdbdc4dbU, 0xbda60c40be3dc4dbU, 0xbda60c403dd57d76U, 0xbd8e53a43d0e53a4U,
  0xbdd57d76be6d3612U, 0xbdd57d76be88657dU, 0x3ded36123e49a129U, 0xbcbdc4db3d3dc4dbU,
  0xbe3dc4dbbe9441cbU, 0xbf1a2ff2be6d3612U, 0x3e6159c4bd6d3612U, 0xbe31e88d3d8e53a4U,
  0xbe3dc4dbbda60c40U, 0xbee159c43d0e53a4U, 0x3e79125fbeed3612U, 0xbd6d3612bdbdc4dbU,
  0x3cbdc4db3e827757U, 0xbded36123cbdc4dbU, 0x3da60c403e31e88dU, 0x3d3dc4dbbd3dc4dbU,
  0x3c3dc4db3e9441cbU, 0x3cbdc4dbbd0e53a4U, 0x3e79125f3dd57d76U, 0xbd3dc4dbbe9a2ff2U,
  0xbdd57d763e827757U, 0x3d8e53a4bded3612U, 0x3e260c40U, 0x3da60c40bebdc4dbU,
  0x3c3dc4db3e260c40U, 0x3e1a2ff23d8e53a4U, 0xbe0277573dd57d76U, 0x3e260c40be260c40U,
  0xbcbdc4db3dd57d76U, 0x3e1a2ff2bd0e53a4U, 0xbe79125fbd8e53a4U, 0xbe027757be3dc4dbU,
  0x3d3dc4dbbe88657dU, 0x3dbdc4dbbded3612U, 0xbcbdc4db3d3dc4dbU, 0x3e260c403e557d76U,
  0xbcbdc4dbbeed3612U, 0xbd3dc4dbbe1a2ff2U, 0x3dbdc4db3e027757U, 0x3e3dc4db3e6159c4U,
  0xbe1a2ff2beb1e88dU, 0xbd0e53a43c3dc4dbU, 0x3ded36123d0e53a4U, 0x3ded36123e8e53a4U,
  0x3d0e53a4bd3dc4dbU, 0xbd8e53a43d6d3612U, 0x0U, 0x3da60c403e79125fU,
  0x3c3dc4db3d0e53a4U, 0xbda60c403e9a2ff2U, 0x3da60c40be31e88dU, 0x3d6d36123e88657dU,
  0xbc3dc4dbbdbdc4dbU, 0xbd6d36123dd57d76U, 0x3e027757be3dc4dbU, 0xbe0e53a4bdd57d76U,
  0x3e79125f3e31e88dU, 0xbe0e53a43e1a2ff2U, 0x3da60c40be79125fU, 0xbdd57d76becf8f50U,
  0x3e31e88dbdd57d76U, 0x3e49a1293e8e53a4U, 0x3c3dc4dbbea01e19U, 0xbecf8f50be1a2ff2U,
  0x3e557d763e79125fU, 0x3cbdc4db3e79125fU, 0x3e027757bea01e19U, 0xbe557d76bd8e53a4U,
  0x3e31e88dbd8e53a4U, 0xbe1a2ff2be027757U, 0x3d3dc4dbbdd57d76U, 0xbe0e53a4bcbdc4dbU,
  0xbe6159c4bdd57d76U, 0x3d3dc4dbbcbdc4dbU, 0x3cbdc4dbbd6d3612U, 0x3dbdc4db3e557d76U,
  0xbee159c4be0e53a4U, 0xbe0e53a4bded3612U, 0x3e260c403d0e53a4U, 0x3e3dc4db3dbdc4dbU,
  0xbeb1e88dbeabfa66U, 0xbd8e53a4be260c40U, 0x3e9a2ff23e260c40U, 0x3ded3612bc3dc4dbU,
  0x3d8e53a4bded3612U, 0x3e260c40bdd57d76U, 0x3e31e88dbda60c40U, 0xbe49a129bcbdc4dbU,
  0xbc3dc4dbbe6159c4U, 0xbcbdc4db3da60c40U, 0x3e6159c4bedb6b9dU, 0xbc3dc4dbbe6d3612U,
  0x3ea60c40bdd57d76U, 0x3e0e53a4bda60c40U, 0xbdd57d76be8e53a4U, 0x3d6d36123d0e53a4U,
  0x3eabfa663eb1e88dU, 0x3ec9a1293c3dc4dbU, 0xbe260c40beabfa66U, 0x3d0e53a4bd3dc4dbU,
  0x3ec3b3023d8e53a4U, 0x3e6d36123cbdc4dbU, 0xbe31e88dbd3dc4dbU, 0x3e6159c43dbdc4dbU,
  0x3e49a129bda60c40U, 0xbe3dc4dbbe027757U, 0xbd3dc4dbbe9441cbU, 0x3d3dc4dbbd6d3612U,
  0xbeb7d6b43dbdc4dbU, 0xbe8277573d6d3612U, 0xbd8e53a4be6d3612U, 0x3ea01e19bda60c40U,
  0xbe9441cb3d3dc4dbU, 0x3e49a1293cbdc4dbU, 0x3e49a1293c3dc4dbU, 0x3e1a2ff23da60c40U,
  0xbf5b6b9dbe88657dU, 0xbdbdc4db3dd57d76U, 0x3e49a129be3dc4dbU, 0x3e557d76be557d76U,
  0xbe557d76bcbdc4dbU, 0xbd6d36123ded3612U, 0x3e9441cbbe9441cbU, 0x3d6d3612bded3612U,
  0xbec9a129bea01e19U, 0x3da60c40bc3dc4dbU, 0x3e1a2ff2bcbdc4dbU, 0x3e0277573c3dc4dbU,
  0xbd6d3612be557d76U, 0x3f027757be79125fU, 0x3e31e88d3d3dc4dbU, 0xbe79125f00000000U,
  0x3e3dc4dbbe827757U, 0x3ebdc4dbbe260c40U, 0x3e0e53a4bc3dc4dbU, 0x3e0e53a4be3dc4dbU,
  0x3d6d3612be79125fU, 0xbdbdc4db00000000U, 0x3c3dc4dbbeabfa66U, 0x3d3dc4dbbded3612U,
  0xbd3dc4dbbded3612U, 0x3dbdc4dbbe88657dU, 0x3d3dc4dbbcbdc4dbU, 0x3cbdc4db3d3dc4dbU,
  0x3e260c403dbdc4dbU, 0x3e0e53a4be3dc4dbU, 0x3dd57d76bd6d3612U, 0x3da60c40U,
  0x3da60c403e260c40U, 0xbe260c4000000000U, 0xbd3dc4db3c3dc4dbU, 0x3da60c403e31e88dU,
  0x3e8e53a4be6159c4U, 0xbea01e193e260c40U, 0xbd3dc4db3dd57d76U, 0x0U,
  0xbdd57d763d3dc4dbU, 0xbd8e53a43e6159c4U, 0x3e3dc4dbbe6d3612U, 0xbe6159c43e260c40U,
  0xbe027757U, 0x3eb1e88d3e0e53a4U, 0x3e6159c43e0e53a4U, 0xbf0277573e1a2ff2U,
  0xbc3dc4dbbe49a129U, 0x3e557d76bc3dc4dbU, 0xbe1a2ff23e31e88dU, 0xbdbdc4db3d0e53a4U,
  0xbd6d3612bdbdc4dbU, 0x3e9a2ff2bd6d3612U, 0x3c3dc4db00000000U, 0xbe88657d3c3dc4dbU,
  0xbea01e193ded3612U, 0x3d8e53a4bd6d3612U, 0x3e0e53a43d3dc4dbU, 0x3e260c403f201e19U,
  0xbdd57d7600000000U, 0xbda60c403e88657dU, 0x3e260c403ec3b302U, 0xbd3dc4dbbe88657dU,
  0xbe9441cbbe6d3612U, 0x3e79125fbd8e53a4U, 0x3eb7d6b43e260c40U, 0x3dbdc4dbbe027757U,
  0xbdbdc4db00000000U, 0x3dbdc4db3ef9125fU, 0xbd3dc4db3cbdc4dbU, 0x3e3dc4dbbe49a129U,
  0x3e6d3612be79125fU, 0x3dd57d76be6159c4U, 0xbd6d36123c3dc4dbU, 0x3e88657dbe1a2ff2U,
  0x3eb1e88dU, 0x3e31e88d3d0e53a4U, 0x3e79125fbe027757U, 0x3e557d763d3dc4dbU,
  0x3d8e53a43e027757U, 0x3eabfa663e557d76U, 0xbdbdc4dbbe88657dU, 0x3e31e88d3dd57d76U,
  0x3e557d763dbdc4dbU, 0x3d3dc4db3dbdc4dbU, 0xbe8e53a4bea60c40U, 0x3dd57d76bd0e53a4U,
  0xbe0e53a43ebdc4dbU, 0xbe31e88dbe027757U, 0xbe8e53a4bc3dc4dbU, 0xbe827757bebdc4dbU,
  0xbe49a1293e1a2ff2U, 0x3e49a129bd0e53a4U, 0xbe49a1293dbdc4dbU, 0xbf1441cbbeb1e88dU,
  0xbe31e88d3d3dc4dbU, 0xbcbdc4db3c3dc4dbU, 0xbe6159c4bda60c40U, 0xbe1a2ff23d6d3612U,
  0xbe31e88d3ded3612U, 0x3d6d36123e49a129U, 0x3e0e53a4bd3dc4dbU, 0x3d0e53a4be6159c4U,
  0xbe6d3612be88657dU, 0x3e88657d3d8e53a4U, 0xbc3dc4db3e6159c4U, 0x3d3dc4dbbef9125fU,
  0xbe9441cbbd3dc4dbU, 0x3d3dc4db3d6d3612U, 0x3d6d3612bcbdc4dbU, 0xbe31e88d3d8e53a4U,
  0xbd0e53a4bdd57d76U, 0x3ded36123e1a2ff2U, 0x3e1a2ff2bdbdc4dbU, 0xbe260c40bedb6b9dU,
  0xbd3dc4dbbe6d3612U, 0x3e79125fbc3dc4dbU, 0xbe1a2ff2bded3612U, 0x3e0277573c3dc4dbU,
  0x3d6d36123e260c40U, 0x3e88657dbd0e53a4U, 0xbeabfa663e9a2ff2U, 0x3e0e53a43dd57d76U,
  0x3ea01e193e6d3612U, 0x3ebdc4db3ec9a129U, 0xbda60c403e1a2ff2U, 0xbcbdc4db3dbdc4dbU,
  0x3d6d36123e827757U, 0xbe88657d3ee159c4U, 0x3e1a2ff23ebdc4dbU, 0xbecf8f50be0e53a4U,
  0x3e9a2ff23eabfa66U, 0x3d0e53a43d0e53a4U, 0xbcbdc4db3e557d76U, 0x3e3dc4dbbe31e88dU,
  0xbea01e193ea01e19U, 0xbe0e53a43e0e53a4U, 0xbe1a2ff2bd8e53a4U, 0xbda60c40be260c40U,
  0xbe557d76bedb6b9dU, 0xbe0277573e6d3612U, 0x3da60c40be88657dU, 0xbe0e53a4beabfa66U,
  0xbe8e53a4bed57d76U, 0xbe3dc4db3e31e88dU, 0xbe0277573e6159c4U, 0x3e6159c4beff0086U,
  0xbe557d76be557d76U, 0x3eb1e88d3e3dc4dbU, 0x3e027757be8e53a4U, 0x3e027757be9a2ff2U,
  0xbe79125fbe79125fU, 0x3eb1e88d3dd57d76U, 0xbda60c403d0e53a4U, 0xbc3dc4db3e31e88dU,
  0x3c3dc4dbbef32439U, 0xbd8e53a43eabfa66U, 0xbeff0086bed57d76U, 0x3e8277573eb7d6b4U,
  0xbc3dc4dbbee159c4U, 0xbd8e53a43e88657dU, 0xbe3dc4dbbe6d3612U, 0x3e0e53a43ded3612U,
  0x3cbdc4dbbed57d76U, 0xbdbdc4db3ea60c40U, 0x3e49a129be027757U, 0xbd0e53a43e9441cbU,
  0xbc3dc4dbbe3dc4dbU, 0xbcbdc4db3ea01e19U, 0x3e6d3612bd3dc4dbU, 0xbda60c403e6d3612U,
  0xbd3dc4dbbe31e88dU, 0xbcbdc4db3e9a2ff2U, 0x3e6d3612bd8e53a4U, 0xbd0e53a43e557d76U,
  0xbe6159c4be260c40U, 0xbe79125fbe6159c4U, 0x3e6d3612bdbdc4dbU, 0xbd3dc4db3e49a129U,
  0xbeed36123d6d3612U, 0xbe6159c4bedb6b9dU, 0x3e31e88d3d6d3612U, 0x3d6d36123d0e53a4U,
  0xbec9a1293da60c40U, 0xbe79125fbea60c40U, 0x3da60c40bda60c40U, 0xbe6159c43c3dc4dbU,
  0xbe8277573d6d3612U, 0xbd8e53a4be88657dU, 0x3e260c40bdbdc4dbU, 0xbe1a2ff2bdd57d76U,
  0xbe9a2ff23d6d3612U, 0xbe3dc4dbbc3dc4dbU, 0x3ded361200000000U, 0xbe557d76bdbdc4dbU,
  0xbe6159c4bd3dc4dbU, 0xbd3dc4dbbe6159c4U, 0x3dd57d76U, 0xbe1a2ff2be49a129U,
  0xbe79125fbe6d3612U, 0x3d3dc4dbbe79125fU, 0xbda60c40bcbdc4dbU, 0xbea01e19beabfa66U,
  0x3e3dc4dbbda60c40U, 0xbd3dc4dbU, 0x3d3dc4dbbec3b302U, 0x3e260c40U,
  0x3d3dc4db3d0e53a4U, 0x3e027757beabfa66U, 0xbdbdc4dbbe557d76U, 0xbda60c403d6d3612U,
  0xbcbdc4db3d8e53a4U, 0x3da60c40bded3612U, 0x3d8e53a4bda60c40U, 0xbe0277573dd57d76U,
  0xbded3612bd8e53a4U, 0x3d6d3612be0e53a4U, 0x3c3dc4dbbd0e53a4U, 0x3c3dc4dbbc3dc4dbU,
  0xbd6d3612bc3dc4dbU, 0x3cbdc4dbbded3612U, 0xbc3dc4db3da60c40U, 0x3cbdc4dbbc3dc4dbU,
  0x3da60c40be260c40U, 0xbd0e53a4bc3dc4dbU, 0x3cbdc4db3dd57d76U, 0xbd6d3612be9441cbU,
  0xbd3dc4dbbd6d3612U, 0x3d0e53a4be027757U, 0x3d8e53a43e1a2ff2U, 0xbd3dc4dbbdd57d76U,
  0xbe49a1293d8e53a4U, 0xbe49a129bded3612U, 0x3da60c403dd57d76U, 0x3ded36123c3dc4dbU,
  0xbeb7d6b43e557d76U, 0xbe3dc4db3c3dc4dbU, 0x3e260c403ded3612U, 0x3dd57d763c3dc4dbU,
  0xbd8e53a43d6d3612U, 0x3e31e88d3d0e53a4U, 0x3e6d36123dbdc4dbU, 0xbd8e53a43cbdc4dbU,
  0xbe9441cb3da60c40U, 0xbda60c40bd3dc4dbU, 0x3e557d763cbdc4dbU, 0x3eabfa663cbdc4dbU,
  0xbe3dc4dbbe49a129U, 0xbe31e88d3e557d76U, 0x3e1a2ff23da60c40U, 0xbcbdc4dbbda60c40U,
  0x3eb1e88dbe027757U, 0xbd8e53a4be260c40U, 0x3e31e88dbe79125fU, 0x3ed57d763e260c40U,
  0x3e49a129be8e53a4U, 0xbe027757bd3dc4dbU, 0x3dd57d76U, 0x3e0277573e0e53a4U,
  0x3d6d3612be027757U, 0xbe88657d3c3dc4dbU, 0x3cbdc4dbbe1a2ff2U, 0x3ea01e193e88657dU,
  0x3d8e53a43dbdc4dbU, 0xbe88657dbe260c40U, 0x3e027757bcbdc4dbU, 0x3e31e88d3e557d76U,
  0xbe557d763e027757U, 0xbe31e88d3e260c40U, 0xbc3dc4db3cbdc4dbU, 0xbc3dc4dbbda60c40U,
  0xbe557d763e557d76U, 0xbdd57d763e1a2ff2U, 0xbded36123da60c40U, 0xbd6d3612bed57d76U,
  0xbded36123dd57d76U, 0xbd6d3612bd8e53a4U, 0xbd0e53a43d3dc4dbU, 0xbe1a2ff2bef32439U,
  0xbe49a1293e8e53a4U, 0xbd3dc4db3d6d3612U, 0xbda60c40bd0e53a4U, 0xbded3612be557d76U,
  0x3eb7d6b4U, 0xbded36123e027757U, 0xbd3dc4dbbd0e53a4U, 0xbe027757be557d76U,
  0xbe557d763e9441cbU, 0x3dbdc4dbbd0e53a4U, 0x3da60c40bdd57d76U, 0x3e88657dbeb7d6b4U,
  0xbdbdc4db3e8e53a4U, 0x3e88657dbd3dc4dbU, 0x3e8e53a4bd6d3612U, 0xbd6d3612U,
  0xbee159c4bcbdc4dbU, 0x3cbdc4dbbe260c40U, 0xbe31e88dbe1a2ff2U, 0xbd8e53a4bded3612U,
  0xbd6d361200000000U, 0x3e6159c4be8e53a4U, 0x3c3dc4db3c3dc4dbU, 0x3f1441cbbd3dc4dbU,
  0x3cbdc4dbbd8e53a4U, 0xbe31e88dbe3dc4dbU, 0x3e8277573dd57d76U, 0x3ee747eb3e0e53a4U,
  0x3d8e53a43e027757U, 0xbe31e88d3cbdc4dbU, 0x3d0e53a43e260c40U, 0x3e79125fbc3dc4dbU,
  0xbd3dc4db3d6d3612U, 0xbd6d3612bdbdc4dbU, 0xbe49a129bd6d3612U, 0x3e6159c43e027757U,
  0x3d8e53a4bd6d3612U, 0xbdd57d76be31e88dU, 0xbd8e53a43d0e53a4U, 0x3d6d3612beb1e88dU,
  0xbd3dc4db3e1a2ff2U, 0x3d0e53a43e0e53a4U, 0xbdbdc4db00000000U, 0xbe9a2ff2bd3dc4dbU,
  0xbcbdc4db3e260c40U, 0xbe557d76bc3dc4dbU, 0xbe3dc4dbbe260c40U, 0xbe8e53a4bcbdc4dbU,
  0xbd0e53a43e557d76U, 0x3e31e88dbd0e53a4U, 0xbc3dc4dbbdbdc4dbU, 0xbea60c40be6159c4U,
  0x3d3dc4db3d6d3612U, 0xbd0e53a400000000U, 0x3d8e53a43d3dc4dbU, 0xbe8e53a4bd6d3612U,
  0x3da60c403e1a2ff2U, 0x3e557d76bc3dc4dbU, 0xbdbdc4db3e9a2ff2U, 0x3cbdc4db3e027757U,
  0x3d8e53a4bdd57d76U, 0x3dbdc4db3eabfa66U, 0xbe0e53a43e9441cbU, 0xbda60c40bdd57d76U,
  0x3dbdc4dbbe3dc4dbU, 0x3e557d763d3dc4dbU, 0x3e3dc4dbbebdc4dbU, 0xbd8e53a4be79125fU,
  0x3e260c40be6d3612U, 0x3d3dc4dbbf1a2ff2U, 0xbe0277573dbdc4dbU, 0x3ee159c43e1a2ff2U,
  0x3c3dc4db3c3dc4dbU, 0x3c3dc4dbbea60c40U, 0x3e1a2ff23e31e88dU, 0x3ea60c40bd0e53a4U,
  0x3e0277573d8e53a4U, 0x3c3dc4dbbe0e53a4U, 0x3c3dc4db3e3dc4dbU, 0x3c3dc4db3c3dc4dbU,
  0x3e1a2ff2bdbdc4dbU, 0x3e027757bdbdc4dbU, 0xbd3dc4dbbe0e53a4U, 0x3d3dc4dbbee159c4U,
  0x3d6d3612bea01e19U, 0x3c3dc4dbbdbdc4dbU, 0xbe260c40be6159c4U, 0xbe260c40bd6d3612U,
  0x3d6d3612bc3dc4dbU, 0x3e88657d3c3dc4dbU, 0x3d0e53a43e88657dU, 0xbe6159c4bcbdc4dbU,
  0xbeb7d6b4be027757U, 0x3e1a2ff2bec9a129U, 0xbd0e53a43ded3612U, 0xbd3dc4dbbda60c40U,
  0xbed57d76be1a2ff2U, 0x3e827757beb1e88dU, 0x3c3dc4db3d0e53a4U, 0x3d8e53a43d6d3612U,
  0xbe8e53a43ef32439U, 0x3dd57d763eb1e88dU, 0xbdbdc4db3da60c40U, 0x3c3dc4db3e827757U,
  0xbe88657dbd0e53a4U, 0x3d3dc4db3e31e88dU, 0xbe79125fbda60c40U, 0x3e027757bd0e53a4U,
  0xbe1a2ff23d8e53a4U, 0x3d0e53a43e49a129U, 0x3dd57d763d0e53a4U, 0xbcbdc4dbbedb6b9dU,
  0xbf5286633e3dc4dbU, 0x3c3dc4db3f056e6aU, 0xbe260c403d8e53a4U, 0x3c3dc4dbbc3dc4dbU,
  0x3f0277573e557d76U, 0x3dd57d76be027757U, 0x3ded3612bef32439U, 0x3e557d763e79125fU,
  0x3e8277573dbdc4dbU, 0x3c3dc4dbbe1a2ff2U, 0x3e79125f3e0e53a4U, 0x3e6d36123da60c40U,
  0x3edb6b9d3ea01e19U, 0x3e1a2ff2be1a2ff2U, 0x3ded36123c3dc4dbU, 0x3dbdc4dbbe1a2ff2U,
  0x3e79125f3e79125fU, 0xbe6d36123ec3b302U, 0xbd8e53a43cbdc4dbU, 0xbe3dc4dbbda60c40U,
  0x3e02775700000000U, 0xbcbdc4db3d6d3612U, 0x3e6159c4U, 0xbee159c4be9441cbU,
  0xbe1a2ff2be260c40U, 0x3c3dc4db3e260c40U, 0xbc3dc4db3ded3612U, 0xbec3b302be827757U,
  0xbf0b5c91be260c40U, 0xbcbdc4db3e6d3612U, 0xbcbdc4db3e260c40U, 0xbdd57d76be9a2ff2U,
  0x3d8e53a43dbdc4dbU, 0x3d0e53a4bea60c40U, 0x3e1a2ff23e027757U, 0xbda60c40bec9a129U,
  0xbda60c40bec9a129U, 0xbded36123ded3612U, 0x3e260c40bd0e53a4U, 0xbd8e53a43f08657dU,
  0xbd3dc4dbbc3dc4dbU, 0x3e027757bdd57d76U, 0xbec3b3023cbdc4dbU, 0xbd3dc4dbbe9a2ff2U,
  0x3e31e88dbf290353U, 0x3e1a2ff23eb1e88dU, 0xbe6d3612be9441cbU, 0xbec3b3023e6d3612U,
  0xbf114ab8U, 0xbdbdc4db3dbdc4dbU, 0xbd8e53a4be557d76U, 0x3cbdc4dbbe557d76U,
  0xbe0e53a4bded3612U, 0xbe827757bd0e53a4U, 0x3dbdc4dbbe31e88dU, 0xbe0e53a43ded3612U,
  0xbe9441cbU, 0xbebdc4db3dbdc4dbU, 0x3da60c40be6d3612U, 0xbd0e53a43d0e53a4U,
  0x3d3dc4dbbd8e53a4U, 0xbeabfa663e1a2ff2U, 0x3dbdc4dbbe027757U, 0xbded36123c3dc4dbU,
  0x3cbdc4db3c3dc4dbU, 0xbd3dc4db3dbdc4dbU, 0x3dbdc4db00000000U, 0xbda60c40bdbdc4dbU,
  0x3e1a2ff2U, 0x3ded36123d3dc4dbU, 0x3d3dc4db00000000U, 0xbe31e88dbe6d3612U,
  0x3e31e88dU, 0x3d6d3612bc3dc4dbU, 0x3d3dc4db3e1a2ff2U, 0xbe260c40be3dc4dbU,
  0xbd3dc4db3e1a2ff2U, 0x3d6d3612bda60c40U, 0xbe0e53a43e0e53a4U, 0xbe827757bea60c40U,
  0xbd3dc4db3e6159c4U, 0x3e0e53a4bda60c40U, 0xbe1a2ff23dd57d76U, 0xbe260c40bd8e53a4U,
  0xbe0277573e557d76U, 0x3e49a129bd3dc4dbU, 0xbe6d36123e6159c4U, 0xbe49a12900000000U,
  0xbd6d36123e260c40U, 0x3ea01e19be0e53a4U, 0xbe31e88d3e79125fU, 0xbe31e88d3d0e53a4U,
  0xbe8277573d0e53a4U, 0x3ea60c40bda60c40U, 0xbe6d36123eb1e88dU, 0xbdbdc4db3e027757U,
  0xbef32439be6d3612U, 0x3eed3612bf6159c4U, 0xbe79125f3f114ab8U, 0xbe0e53a43e49a129U,
  0xbd0e53a43d8e53a4U, 0xbdbdc4db3e260c40U, 0xbd3dc4db3d0e53a4U, 0xbd6d3612be3dc4dbU,
  0x3e027757bded3612U, 0xbe3dc4db3e6159c4U, 0x3c3dc4db3e31e88dU, 0x3c3dc4dbbdd57d76U,
  0x3cbdc4db3cbdc4dbU, 0xbeb7d6b43e1a2ff2U, 0xbc3dc4dbbe027757U, 0xbea60c4000000000U,
  0x3da60c403da60c40U, 0xbe88657d3e827757U, 0xbded3612be027757U, 0xbe3dc4db3e260c40U,
  0x3d8e53a43d0e53a4U, 0xbe79125f3e9a2ff2U, 0x3d8e53a4be1a2ff2U, 0x3d0e53a43e49a129U,
  0xbd3dc4db3dbdc4dbU, 0xbe9441cbbe1a2ff2U, 0xbcbdc4db3d6d3612U, 0xbe3dc4db3e260c40U,
  0xbded36123da60c40U, 0xbda60c40bdbdc4dbU, 0xbd6d36123cbdc4dbU, 0xbe0e53a43ded3612U,
  0xbe31e88dbe557d76U, 0xbd0e53a4be31e88dU, 0xbd0e53a4bd8e53a4U, 0x3e0e53a43ded3612U,
  0xbe1a2ff2be6159c4U, 0x3dbdc4dbbe31e88dU, 0xbd3dc4dbbc3dc4dbU, 0xbdbdc4db3e49a129U,
  0xbe88657dbe827757U, 0x3e6d3612be88657dU, 0xbe0e53a43c3dc4dbU, 0x3d3dc4db3e31e88dU,
  0xbda60c40be9441cbU, 0x3ea60c40bd0e53a4U, 0xbe1a2ff2bd3dc4dbU, 0xbd0e53a43e31e88dU,
  0xbded3612bf027757U, 0x3e6d361200000000U, 0xbe1a2ff2be0e53a4U, 0x3d3dc4dbbe0e53a4U,
  0x3da60c40bc3dc4dbU, 0x3cbdc4db3dbdc4dbU, 0xbeb7d6b4bc3dc4dbU, 0xbebdc4db3dd57d76U,
  0x3e3dc4db3e0e53a4U, 0xbdd57d763e260c40U, 0xbd3dc4dbbd3dc4dbU, 0x3d8e53a43d3dc4dbU,
  0x3d0e53a4bded3612U, 0x3d8e53a400000000U, 0xbc3dc4dbbd8e53a4U, 0xbd6d3612bded3612U,
  0x3d6d36123e260c40U, 0x3e31e88dbe9441cbU, 0x3da60c403e027757U, 0xbe0e53a4be31e88dU,
  0xbe49a129bded3612U, 0x3e49a129be0e53a4U, 0x3c3dc4dbbd8e53a4U, 0x3e260c40bd6d3612U,
  0xbd3dc4dbbe6159c4U, 0x3e31e88dbe9441cbU, 0xbd0e53a43d0e53a4U, 0x3c3dc4dbbe027757U,
  0xbcbdc4dbbe1a2ff2U, 0x3dd57d76be79125fU, 0x3dd57d763dd57d76U, 0x3cbdc4dbbd3dc4dbU,
  0x3c3dc4db3d0e53a4U, 0x3e0e53a43cbdc4dbU, 0x3ded361200000000U, 0x3d3dc4dbbd6d3612U,
  0x3d0e53a43d8e53a4U, 0x3da60c403d0e53a4U, 0x3dd57d76U, 0xbda60c403da60c40U,
  0xbcbdc4dbbded3612U, 0xbc3dc4db3e79125fU, 0x3d3dc4db3d8e53a4U, 0xbd6d3612U,
  0x3d3dc4db3e0e53a4U, 0x3e3dc4db3e6d3612U, 0x3e1a2ff23e0e53a4U, 0xbe0e53a43dbdc4dbU,
  0xbe49a129bd6d3612U, 0x3da60c403e1a2ff2U, 0xbd8e53a43d0e53a4U, 0xbe49a129bebdc4dbU,
  0x3d0e53a4bcbdc4dbU, 0x3c3dc4dbbdbdc4dbU, 0xbe1a2ff2be0e53a4U, 0xbe9a2ff23e027757U,
  0x3da60c403e827757U, 0xbe6d36123d6d3612U, 0xbeb1e88d3e027757U, 0xbdd57d76bcbdc4dbU,
  0x3e88657d3e6d3612U, 0x3d0e53a4bd0e53a4U, 0x3e027757bd3dc4dbU, 0xbe31e88dbc3dc4dbU,
  0x3d0e53a43dbdc4dbU, 0xbcbdc4dbbdd57d76U, 0x3e260c40be0e53a4U, 0xbd8e53a43e027757U,
  0xbe260c403d6d3612U, 0x3e827757be1a2ff2U, 0x3e49a129bda60c40U, 0x3cbdc4dbbc3dc4dbU,
  0xbdd57d76bdbdc4dbU, 0x3ded36123d3dc4dbU, 0x3c3dc4dbU, 0x3c3dc4db3e88657dU,
  0xbe3dc4dbbdbdc4dbU, 0x3e6d3612be027757U, 0x3e31e88dbe3dc4dbU, 0xbd3dc4dbU,
  0xbecf8f50be260c40U, 0x3e88657dbe3dc4dbU, 0x3e557d763e6d3612U, 0x3e3dc4dbbc3dc4dbU,
  0xbe8e53a4be8e53a4U, 0x3ebdc4dbbe557d76U, 0x3cbdc4db3e557d76U, 0x3e6d36123ea60c40U,
  0xbe6159c4be9a2ff2U, 0x3f31e88dbded3612U, 0x3cbdc4db3e827757U, 0x3e3dc4db3e0e53a4U,
  0xbee747ebbee747ebU, 0x3f1738dfbe49a129U, 0xbc3dc4db3e0e53a4U, 0xbcbdc4db3e027757U,
  0xbe9a2ff2beff0086U, 0x3f2ef17abe9a2ff2U, 0xbee159c43e3dc4dbU, 0x3e260c40be31e88dU,
  0x3e0e53a4be027757U, 0xbeb1e88d3d3dc4dbU, 0x3cbdc4db3e79125fU, 0x3e260c403e827757U,
  0x3e3dc4dbbe0e53a4U, 0x3da60c403e8e53a4U, 0x3dd57d76be3dc4dbU, 0x3ded36123da60c40U,
  0x3d6d3612bd3dc4dbU, 0x3e557d763e9a2ff2U, 0x3e260c40bdbdc4dbU, 0xbd0e53a400000000U,
  0xbe557d76be6d3612U, 0x3e6d36123cbdc4dbU, 0xbe0277573d3dc4dbU, 0xbe027757bd6d3612U,
  0xbe6d36123cbdc4dbU, 0xbcbdc4db3cbdc4dbU, 0xbc3dc4dbbe1a2ff2U, 0xbd6d3612bda60c40U,
  0x3e1a2ff2bded3612U, 0x3e88657d3ea60c40U, 0xbda60c40bc3dc4dbU, 0x3d8e53a4be31e88dU,
  0x3d0e53a43cbdc4dbU, 0x3e260c40bded3612U, 0x3da60c403dd57d76U, 0x3c3dc4dbbe260c40U,
  0xbea60c403e1a2ff2U, 0x3e31e88d3e9a2ff2U, 0x3c3dc4db3eb7d6b4U, 0x3d8e53a4bc3dc4dbU,
  0xbee747eb3e9441cbU, 0x3ea60c403e9a2ff2U, 0xbe49a1293e9a2ff2U, 0xbe027757bded3612U,
  0xbe0e53a43ded3612U, 0x3e3dc4dbbe557d76U, 0x3d8e53a43e1a2ff2U, 0xbe3dc4db3e0e53a4U,
  0xbe9441cb3ea60c40U, 0x3e9441cb3e79125fU, 0xbd6d36123eb7d6b4U, 0xbdbdc4db3e49a129U,
  0xbf056e6a3e6159c4U, 0xbe79125fbe027757U, 0xbe8e53a4bdbdc4dbU, 0xbea01e19be557d76U,
  0xbd8e53a4be557d76U, 0xbf58748abdd57d76U, 0xbd8e53a4bc3dc4dbU, 0xbda60c403e3dc4dbU,
  0xbdbdc4dbU, 0x3d6d36123e0e53a4U, 0x3d8e53a43e557d76U, 0xbda60c40be027757U,
  0xbd3dc4dbbe557d76U, 0xbe827757be827757U, 0x3e3dc4db3e6d3612U, 0x3e027757be88657dU,
  0x3d0e53a4bcbdc4dbU, 0x3cbdc4db3ebdc4dbU, 0xbe260c403da60c40U, 0xbe6159c4be557d76U,
  0x3e6d36123e027757U, 0xbe027757U, 0xbc3dc4dbbdbdc4dbU, 0xbe79125fbe1a2ff2U,
  0x3cbdc4db3e827757U, 0x3da60c40bd0e53a4U, 0xbe79125fbe31e88dU, 0xbec9a129beabfa66U,
  0x3e79125fbe0e53a4U, 0xbda60c40be0e53a4U, 0x3e557d76U, 0xbe1a2ff2U,
  0xbc3dc4db3d0e53a4U, 0x3ded36123da60c40U, 0xbcbdc4dbbe827757U, 0xbd6d36123dd57d76U,
  0x3e88657d3e1a2ff2U, 0x3d0e53a4bcbdc4dbU, 0xbe557d76bcbdc4dbU, 0x3d6d36123e49a129U,
  0x3d6d3612U, 0x3eb1e88d3c3dc4dbU, 0xbcbdc4dbbcbdc4dbU, 0xbded36123cbdc4dbU,
  0xbe9441cb3e1a2ff2U, 0x3e1a2ff23d3dc4dbU, 0xbdbdc4dbbe260c40U, 0xbebdc4db3e1a2ff2U,
  0xbdd57d76be827757U, 0x3e6159c4bded3612U, 0xbee159c4be827757U, 0xbe557d76be9441cbU,
  0x3cbdc4dbbc3dc4dbU, 0x3cbdc4dbbdd57d76U, 0xbd0e53a43ebdc4dbU, 0xbe88657dbd6d3612U,
  0xbc3dc4db3cbdc4dbU, 0xbc3dc4dbbe6d3612U, 0xbd8e53a43e8e53a4U, 0xbdbdc4dbbd6d3612U,
  0xbcbdc4db3d8e53a4U, 0xbcbdc4dbbe6159c4U, 0xbe79125f3e6159c4U, 0xbe3dc4dbbd8e53a4U,
  0xbc3dc4db3d3dc4dbU, 0xbd3dc4dbbe8e53a4U, 0xbeb1e88d3e1a2ff2U, 0xbe1a2ff23d6d3612U,
  0x3cbdc4db3d3dc4dbU, 0xbcbdc4dbbe6d3612U, 0xbe6159c43e1a2ff2U, 0xbe027757bd0e53a4U,
  0xbcbdc4dbbc3dc4dbU, 0xbcbdc4dbbe260c40U, 0xbe31e88d3e1a2ff2U, 0xbd8e53a43e0e53a4U,
  0xbe1a2ff2bdd57d76U, 0x3dd57d76be827757U, 0xbe557d763e1a2ff2U, 0xbe49a1293e027757U,
  0xbeb7d6b43e1a2ff2U, 0xbd0e53a4bec3b302U, 0xbe260c403e1a2ff2U, 0xbe0e53a43d3dc4dbU,
  0xbe557d76bd6d3612U, 0x3d8e53a4bd6d3612U, 0xbdd57d763e88657dU, 0xbec3b3023e260c40U,
  0xbdd57d76beb7d6b4U, 0xbded36123e260c40U, 0xbded36123e49a129U, 0xbdd57d763e9441cbU,
  0xbe6d36123d8e53a4U, 0xbea60c403e9a2ff2U, 0xbd8e53a43c3dc4dbU, 0xbdd57d763e6d3612U,
  0x3e0e53a4bf1441cbU, 0xbcbdc4dbbe0e53a4U, 0x3e027757bf557d76U, 0x3e6159c43e1a2ff2U,
  0x3eb1e88d3e3dc4dbU, 0xbcbdc4db3ec3b302U, 0x3e31e88d3e8e53a4U, 0xbf0277573d3dc4dbU,
  0x3dd57d763e31e88dU, 0x3e557d76U, 0x3da60c403c3dc4dbU, 0xbe9a2ff23e260c40U,
  0x3e8e53a43e6d3612U, 0x3d0e53a43e3dc4dbU, 0xbd0e53a4be3dc4dbU, 0xbe1a2ff23e027757U,
  0x3e9441cb3ded3612U, 0x3cbdc4db3e8e53a4U, 0x3d8e53a4bded3612U, 0xbe260c403ded3612U,
  0x3eabfa663e79125fU, 0xbd3dc4db3e88657dU, 0x3d3dc4dbbe9a2ff2U, 0xbda60c403dbdc4dbU,
  0x3e9441cb3d8e53a4U, 0xbdbdc4db3d0e53a4U, 0xbc3dc4dbbdd57d76U, 0xbdbdc4dbbe260c40U,
  0x3f056e6abeabfa66U, 0xbd0e53a4bded3612U, 0xbdbdc4dbbea60c40U, 0xbd3dc4dbU,
  0x3e88657dbeb7d6b4U, 0x3c3dc4dbbc3dc4dbU, 0xbcbdc4dbbcbdc4dbU, 0x3dbdc4dbbeabfa66U,
  0x3e260c40bea60c40U, 0x3d3dc4db3d0e53a4U, 0xbded3612be0e53a4U, 0xbc3dc4dbbdbdc4dbU,
  0xbd3dc4dbbed57d76U, 0xbdd57d76U, 0xbe6d36123cbdc4dbU, 0xbda60c40be6d3612U,
  0xbdbdc4dbbe260c40U, 0x3e0e53a43d8e53a4U, 0x3d6d36123da60c40U, 0x3cbdc4dbbea60c40U,
  0xbec3b302be3dc4dbU, 0xbe3dc4dbbd3dc4dbU, 0xbe3dc4dbbe3dc4dbU, 0x3d8e53a4be9a2ff2U,
  0xbd0e53a43d3dc4dbU, 0x3d3dc4db3cbdc4dbU, 0x3da60c403e3dc4dbU, 0xbcbdc4db3dbdc4dbU,
  0xbcbdc4dbbdd57d76U, 0x3ecf8f50bebdc4dbU, 0x3dd57d763d6d3612U, 0xbe1a2ff23e1a2ff2U,
  0x3e0e53a4bd6d3612U, 0x3ded3612beb7d6b4U, 0xbcbdc4db3dbdc4dbU, 0xbe0277573e3dc4dbU,
  0x3d8e53a43cbdc4dbU, 0x3e6d3612be0e53a4U, 0x3c3dc4db3d6d3612U, 0x3e0e53a43ded3612U,
  0xbc3dc4db3e0e53a4U, 0x3d6d3612be49a129U, 0x3c3dc4db3d0e53a4U, 0x3e260c403d0e53a4U,
  0xbe0277573dbdc4dbU, 0x3d0e53a43cbdc4dbU, 0x3e0e53a400000000U, 0x3ea01e19U,
  0xbe6159c43dbdc4dbU, 0x3e6159c43ded3612U, 0xbd0e53a43ded3612U, 0x3d6d36123c3dc4dbU,
  0xbe6159c43c3dc4dbU, 0xbcbdc4db3e6d3612U, 0x3dd57d7600000000U, 0xbded3612bded3612U,
  0xbda60c403c3dc4dbU, 0xbe31e88d3e9a2ff2U, 0x3e3dc4db3ded3612U, 0xbeb7d6b4bea60c40U,
  0xbe0e53a4be9a2ff2U, 0x3d6d36123ecf8f50U, 0xbcbdc4dbbeed3612U, 0xbe9a2ff2be9441cbU,
  0xbf1441cbbe79125fU, 0xbe557d76bd0e53a4U, 0xbe88657dbef32439U, 0xbebdc4dbbda60c40U,
  0xbe88657dbe6d3612U, 0x3c3dc4dbbd6d3612U, 0xbed57d76be6159c4U, 0xbd8e53a4be88657dU,
  0x3e79125f3d0e53a4U, 0x3d0e53a4becf8f50U, 0x3dbdc4dbbe8e53a4U, 0xbcbdc4db3dd57d76U,
  0x3e8e53a43e0e53a4U, 0xbdbdc4dbbea60c40U, 0xbd0e53a4be557d76U, 0x3d0e53a4bdd57d76U,
  0xbd6d36123e0e53a4U, 0xbc3dc4dbbe9441cbU, 0x3d8e53a43e6d3612U, 0x3c3dc4dbbe49a129U,
  0x3e9a2ff2bda60c40U, 0x3e027757be88657dU, 0x3e9a2ff23e027757U, 0x3e557d76bcbdc4dbU,
  0x3dbdc4dbbed57d76U, 0x3e31e88dbe79125fU, 0x3d8e53a43e6159c4U, 0x3eabfa663d6d3612U,
  0xbebdc4dbbeff0086U, 0x3dd57d76beb7d6b4U, 0x3e0e53a43ecf8f50U, 0x3e31e88d3e557d76U,
  0xbebdc4dbbe557d76U, 0x3ec3b302be3dc4dbU, 0x3d0e53a43f056e6aU, 0x3e260c40be1a2ff2U,
  0xbeed3612be79125fU, 0x3ef9125fbe49a129U, 0xbeb7d6b43ecf8f50U, 0xbe31e88d3e3dc4dbU,
  0xbe6159c4be0e53a4U, 0x3edb6b9dbee747ebU, 0xbedb6b9d3e8e53a4U, 0x3e6d3612be49a129U,
  0xbe827757bf1441cbU, 0x3e9a2ff23cbdc4dbU, 0xbf201e193dd57d76U, 0x3e260c403c3dc4dbU,
  0x3e9441cbbf027757U, 0xbe6d36123e6159c4U, 0xbf23152cbe0e53a4U, 0xbea60c403e9a2ff2U,
  0x3e31e88d00000000U, 0xbe8277573da60c40U, 0xbded3612be31e88dU, 0xbe49a1293d6d3612U,
  0xbe31e88d3e3dc4dbU, 0x3cbdc4dbbef32439U, 0x3e9a2ff2beabfa66U, 0xbdd57d763e0e53a4U,
  0xbe88657d3ded3612U, 0x3da60c403e827757U, 0x3e0e53a4bdd57d76U, 0x3dd57d763d3dc4dbU,
  0xbea60c403e6d3612U, 0x3d3dc4db3e8e53a4U, 0x3ea01e19bd0e53a4U, 0x3e6d36123dd57d76U,
  0xbd3dc4db3edb6b9dU, 0x3dbdc4dbbdbdc4dbU, 0x3c3dc4db3e260c40U, 0x3ea60c403d8e53a4U,
  0xbe9441cb3f0b5c91U, 0x3e260c403ded3612U, 0xbe79125f3e88657dU, 0x3e9441cbbe260c40U,
  0xbcbdc4db3e9a2ff2U, 0x3e49a129bd8e53a4U, 0xbcbdc4db3eb1e88dU, 0x3d3dc4dbbe9441cbU,
  0xbecf8f503e027757U, 0x3e6159c43cbdc4dbU, 0xbee159c43dbdc4dbU, 0x3c3dc4dbbeb7d6b4U,
  0xbecf8f503eff0086U, 0x3e88657dbe88657dU, 0xbef324393dd57d76U, 0xbe8e53a4be0e53a4U,
  0xbf40bbeebe79125fU, 0x3d8e53a4be31e88dU, 0xbea01e193da60c40U, 0x3d8e53a4bd6d3612U,
  0x3e0e53a4be88657dU, 0xbe6d3612be31e88dU, 0x3dbdc4dbbdbdc4dbU, 0xbea60c403e3dc4dbU,
  0x3dd57d76bdd57d76U, 0xbeb1e88d3d3dc4dbU, 0x3dbdc4dbbe3dc4dbU, 0xbee747eb00000000U,
  0xbe027757bee747ebU, 0x3dbdc4db3e9441cbU, 0xbf056e6abda60c40U, 0x3d8e53a4be88657dU,
  0x3d3dc4dbbda60c40U, 0x3d3dc4dbbe6d3612U, 0xbd8e53a43e1a2ff2U, 0x3e9441cbbec9a129U,
  0xbe3dc4db3d6d3612U, 0xbe02775700000000U, 0x3dd57d76be88657dU, 0x3e027757bdbdc4dbU,
  0x3cbdc4db3ec9a129U, 0xbded36123d0e53a4U, 0xbd6d3612be6159c4U, 0x3dbdc4dbbe88657dU,
  0xbef3243900000000U, 0x3dbdc4db3ec3b302U, 0xbec3b302U, 0xbeb1e88dbe0e53a4U,
  0xbdd57d763d6d3612U, 0xbe0277573e31e88dU, 0x3cbdc4dbbda60c40U, 0xbc3dc4db00000000U,
  0xbe88657d3dbdc4dbU, 0x3e260c40be3dc4dbU, 0xbe31e88dbe027757U, 0xbd8e53a43da60c40U,
  0x3c3dc4dbbd8e53a4U, 0x3e6159c43e6159c4U, 0xbe8e53a43d8e53a4U, 0x3dbdc4dbbe79125fU,
  0xbd0e53a43d3dc4dbU, 0x3ee747ebU, 0xbe31e88dbed57d76U, 0xbe8e53a4bcbdc4dbU,
  0xbef9125fbef9125fU, 0xbc3dc4dbbc3dc4dbU, 0x3d3dc4dbbdd57d76U, 0xbec3b3023c3dc4dbU,
  0x3d8e53a4be8e53a4U, 0x3d8e53a43e88657dU, 0xbe260c40bdbdc4dbU, 0xbecf8f503e9441cbU,
  0x3cbdc4dbbe88657dU, 0xbd8e53a43ea01e19U, 0x3da60c40bd3dc4dbU, 0x3ded3612bd0e53a4U,
  0xbf3acdc8be557d76U, 0xbe49a1293e0e53a4U, 0xbd0e53a43d8e53a4U, 0xbdbdc4dbbe49a129U,
  0xbe827757be557d76U, 0xbea01e19bedb6b9dU, 0xbd6d3612bd3dc4dbU, 0xbdd57d76bdbdc4dbU,
  0xbe827757bd0e53a4U, 0xbec3b302U, 0x3d0e53a4be557d76U, 0xbc3dc4db3ded3612U,
  0xbe49a129be79125fU, 0xbc3dc4dbbe49a129U, 0x3c3dc4dbbd0e53a4U, 0xbded3612bd3dc4dbU,
  0xbdd57d763cbdc4dbU, 0x3d0e53a4bea60c40U, 0x3d8e53a4be557d76U, 0xbda60c403dbdc4dbU,
  0xbcbdc4db3e3dc4dbU, 0x3e260c40bea01e19U, 0x3d6d3612bd8e53a4U, 0xbdbdc4db3d0e53a4U,
  0xbd6d36123dd57d76U, 0x3d8e53a4be9a2ff2U, 0x3ded361200000000U, 0x3c3dc4dbbdd57d76U,
  0xbd0e53a43e260c40U, 0x3dbdc4dbbebdc4dbU, 0xbda60c403ded3612U, 0x3e31e88dbcbdc4dbU,
  0xbd0e53a43dbdc4dbU, 0x3cbdc4dbbe827757U, 0xbcbdc4db3dbdc4dbU, 0xbd0e53a4bda60c40U,
  0xbcbdc4db3e827757U, 0x3d6d3612be6d3612U, 0xbe88657d3da60c40U, 0x3d3dc4db3d3dc4dbU,
  0xbd3dc4db3e6d3612U, 0xbe1a2ff2be1a2ff2U, 0xbec3b30200000000U, 0x3dbdc4db3e3dc4dbU,
  0xbc3dc4db3e557d76U, 0xbe3dc4dbbe6159c4U, 0xbef32439be0e53a4U, 0xbcbdc4db3d6d3612U,
  0xbda60c403d8e53a4U, 0xbf43b302be8e53a4U, 0xbee747ebbeabfa66U, 0x3dbdc4db3e88657dU,
  0xbd8e53a4U, 0xbe0277573d6d3612U, 0x3e0277573d3dc4dbU, 0xbe0e53a43e79125fU,
  0xbdd57d76be827757U, 0xbe1a2ff2be31e88dU, 0x3ea01e193e88657dU, 0xbd3dc4db3e260c40U,
  0xbeabfa66U, 0x3cbdc4db3d3dc4dbU, 0xbe260c4000000000U, 0xbe49a1293d3dc4dbU,
  0xbecf8f50be9441cbU, 0x3e49a129bdbdc4dbU, 0x3e1a2ff23cbdc4dbU, 0xbe8e53a4bdbdc4dbU,
  0xbedb6b9dbe827757U, 0x3e6d3612bc3dc4dbU, 0xbd0e53a43e0e53a4U, 0xbea01e19bd8e53a4U,
  0xbe31e88dbd0e53a4U, 0xbc3dc4db3d0e53a4U, 0xbc3dc4db3e88657dU, 0xbe260c40bcbdc4dbU,
  0x3ea01e193e260c40U, 0x3dbdc4db3e0e53a4U, 0xbdbdc4db3e31e88dU, 0xbeb1e88dbdbdc4dbU,
  0x3e31e88d3e88657dU, 0xbd8e53a43ea60c40U, 0xbe49a1293e260c40U, 0xbe260c40be6159c4U,
  0x3e6159c43e8e53a4U, 0xbd3dc4db3e827757U, 0xbe260c403d3dc4dbU, 0xbea60c40be827757U,
  0x3ea60c403e260c40U, 0xbea01e193e260c40U, 0xbe79125f3d3dc4dbU, 0xbcbdc4dbbded3612U,
  0x3e8e53a43e49a129U, 0xbe1a2ff23d3dc4dbU, 0xbd6d361200000000U, 0x3dd57d76U,
  0x3ecf8f503ded3612U, 0xbded36123e31e88dU, 0xbe31e88dbebdc4dbU, 0x3ded3612bda60c40U,
  0x3e6159c43d3dc4dbU, 0xbe8277573e260c40U, 0xbe260c40beb1e88dU, 0xbd3dc4dbbe027757U,
  0xbe6159c43e3dc4dbU, 0xbd3dc4db3d3dc4dbU, 0xbc3dc4dbbdbdc4dbU, 0xbdbdc4db3e31e88dU,
  0xbe3dc4dbbd6d3612U, 0xbe6159c43dd57d76U, 0xbe0e53a4be49a129U, 0xbdbdc4dbbd0e53a4U,
  0x3e027757bded3612U, 0x3e0277573e1a2ff2U, 0xbd8e53a4be827757U, 0x3d3dc4dbbd3dc4dbU,
  0x3e027757be557d76U, 0x3d8e53a43e49a129U, 0xbda60c403da60c40U, 0xbdbdc4dbbda60c40U,
  0x3d0e53a4bdd57d76U, 0xbd3dc4db3d3dc4dbU, 0xbe49a1293e557d76U, 0xbe1a2ff23d3dc4dbU,
  0x3c3dc4db3e31e88dU, 0xbd3dc4db3d6d3612U, 0xbd6d36123ea60c40U, 0x3dbdc4dbbdd57d76U,
  0x3e260c403e0e53a4U, 0x3dbdc4dbbe0e53a4U, 0x3d0e53a43ec9a129U, 0x3e9441cbbe79125fU,
  0xbd0e53a4be9441cbU, 0xbf0e53a4U, 0xbe31e88d3ef9125fU, 0x3e1a2ff2be557d76U,
  0x3e027757be1a2ff2U, 0xbd6d3612bc3dc4dbU, 0xbd8e53a43e6d3612U, 0x3e88657dbe0e53a4U,
  0x3e79125f3cbdc4dbU, 0x3dd57d76bd6d3612U, 0x3d6d3612bd3dc4dbU, 0x3c3dc4dbbdd57d76U,
  0x3e6d36123d6d3612U, 0xbded36123e6159c4U, 0xbd0e53a4bd0e53a4U, 0x3dd57d76bd0e53a4U,
  0x3ded3612be027757U, 0xbe260c403e3dc4dbU, 0xbd6d3612be6159c4U, 0xbe0277573e1a2ff2U,
  0x3e1a2ff2bdd57d76U, 0xbe9a2ff23e9a2ff2U, 0xbe557d76U, 0xbe3dc4db3e79125fU,
  0x3ea01e19be260c40U, 0xbc3dc4db3e8e53a4U, 0xbcbdc4dbbf0e53a4U, 0x3d3dc4db3ee747ebU,
  0xbe0e53a4be0e53a4U, 0x3d8e53a43e557d76U, 0xbcbdc4dbbecf8f50U, 0x3d3dc4dbU,
  0xbf2ef17abe31e88dU, 0x3dbdc4db3eb1e88dU, 0x3c3dc4dbbf056e6aU, 0xbcbdc4db3e260c40U,
  0xbe1a2ff23d6d3612U, 0x3e260c40be31e88dU, 0xbd0e53a43d0e53a4U, 0x3d0e53a4be0e53a4U,
  0x3e31e88dbda60c40U, 0xbe9441cbbe260c40U, 0x3e260c403dd57d76U, 0x3d6d36123e3dc4dbU,
  0x3e8277573c3dc4dbU, 0x3cbdc4dbbec3b302U, 0x3e6159c43eb7d6b4U, 0x3e49a129be027757U,
  0x3ea01e19be1a2ff2U, 0xbd8e53a4bedb6b9dU, 0x3e9441cb3eb1e88dU, 0xbd0e53a4be88657dU,
  0x3ea01e19bdd57d76U, 0xbda60c40be827757U, 0x3e8277573e88657dU, 0xbd8e53a4bf056e6aU,
  0x3e557d76bcbdc4dbU, 0x3e0277573cbdc4dbU, 0x3e0277573ea60c40U, 0x3d8e53a4be31e88dU,
  0x3eabfa66be260c40U, 0xbe49a129be827757U, 0x3ded3612U, 0xbcbdc4dbbda60c40U,
  0xbe31e88dbe6d3612U, 0xbc3dc4dbbd6d3612U, 0xbedb6b9d3e6159c4U, 0x3d8e53a43e1a2ff2U,
  0x3d3dc4dbbe9a2ff2U, 0xbdbdc4dbbe9441cbU, 0x3cbdc4dbbe8e53a4U, 0xbe0277573d6d3612U,
  0x3cbdc4db3da60c40U, 0x3e9a2ff23e79125fU, 0xbe6d3612beabfa66U, 0x3e0e53a43c3dc4dbU,
  0xbd0e53a4be31e88dU, 0xbdd57d763ee159c4U, 0xbda60c40bf4f8f50U, 0xbe9a2ff23e027757U,
  0xbea60c403e6d3612U, 0x3ea60c403e6d3612U, 0xbd6d3612be9441cbU, 0xbf260c40be0e53a4U,
  0xbf1738dfbdbdc4dbU, 0x3e79125f3d8e53a4U, 0xbdd57d76be3dc4dbU, 0xbee747eb3e6159c4U,
  0xbd6d36123da60c40U, 0x3ded36123d8e53a4U, 0x3cbdc4db3ea01e19U, 0xbd8e53a43dbdc4dbU,
  0xbc3dc4dbbe88657dU, 0x3e557d76be260c40U, 0x3d3dc4db3eff0086U, 0xbea01e19bded3612U,
  0x3d8e53a4be1a2ff2U, 0xbd8e53a4be6159c4U, 0x3e8277573ded3612U, 0xbe557d76be1a2ff2U,
  0x3ded3612bdd57d76U, 0x3e8e53a4be1a2ff2U, 0x3c3dc4db3e31e88dU, 0x3dbdc4dbbd0e53a4U,
  0x3d3dc4db3dd57d76U, 0x3e027757bd8e53a4U, 0x3d3dc4db3ea01e19U, 0xbe31e88dbea60c40U,
  0x3e557d76be8e53a4U, 0xbeb7d6b4bee747ebU, 0x3d8e53a43e31e88dU, 0x3dbdc4dbbee747ebU,
  0x3e6159c4bf260c40U, 0xbdd57d763da60c40U, 0x3e0277573eb1e88dU, 0xbd3dc4dbU,
  0xbc3dc4dbbe1a2ff2U, 0xbcbdc4db3e260c40U, 0xbded36123d6d3612U, 0xbd6d36123ed57d76U,
  0x3cbdc4dbbd8e53a4U, 0x3ded36123da60c40U, 0xbe0277573eabfa66U, 0xbed57d7600000000U,
  0xbed57d76be1a2ff2U, 0x3da60c40bd3dc4dbU, 0xbe82775700000000U, 0xbe1a2ff23ebdc4dbU,
  0xbebdc4dbbe827757U, 0x3eb7d6b43e49a129U, 0xbe1a2ff23e49a129U, 0xbe557d763e3dc4dbU,
  0xbecf8f503dbdc4dbU, 0x3cbdc4db3e0e53a4U, 0xbe88657dbedb6b9dU, 0xbcbdc4db3e79125fU,
  0xbf0277573e3dc4dbU, 0x3e0e53a43cbdc4dbU, 0xbdbdc4dbbea60c40U, 0xbdd57d76bda60c40U,
  0xbf0b5c913e027757U, 0x3ea01e193e557d76U, 0xbded3612bd8e53a4U, 0xbf260c40bcbdc4dbU,
  0xbee159c43e9a2ff2U, 0x3e0277573e827757U, 0x3dd57d76be027757U, 0xbec9a129beff0086U,
  0xbda60c403d6d3612U, 0x3e6159c43d6d3612U, 0xbd0e53a4be8e53a4U, 0xbe3dc4dbbf6450d7U,
  0xbe79125fbe31e88dU, 0x3ec9a1293e1a2ff2U, 0x3e6d361200000000U, 0x3e027757bf40bbeeU,
  0xbe0e53a4be88657dU, 0x3d3dc4dbbd3dc4dbU, 0x3e557d763d8e53a4U, 0xbd8e53a4be3dc4dbU,
  0x3d6d36123d3dc4dbU, 0x3c3dc4dbbded3612U, 0x3e79125f3da60c40U, 0x3dbdc4dbbe557d76U,
  0x3d3dc4db3dbdc4dbU, 0x3da60c40bc3dc4dbU, 0x3e1a2ff200000000U, 0x3cbdc4dbbea60c40U,
  0x3c3dc4db3da60c40U, 0x3e1a2ff2bd6d3612U, 0x3c3dc4db3da60c40U, 0xbd6d3612bebdc4dbU,
  0x3d3dc4db3dd57d76U, 0x3e557d7600000000U, 0x3d0e53a43d0e53a4U, 0xbd8e53a4bdbdc4dbU,
  0x3c3dc4db3e0e53a4U, 0x3e3dc4db3cbdc4dbU, 0xbe0277573ded3612U, 0xbe6d3612bdbdc4dbU,
  0xbc3dc4db3e027757U, 0x3e557d76bd0e53a4U, 0xbe1a2ff23e1a2ff2U, 0xbdbdc4dbbd3dc4dbU,
  0xbcbdc4db3ded3612U, 0x3e557d763d3dc4dbU, 0xbe31e88d3dbdc4dbU, 0xbd3dc4db00000000U,
  0xbe88657dbd3dc4dbU, 0xbd3dc4dbbe6d3612U, 0xbe557d763e027757U, 0xbdd57d763da60c40U,
  0xbe88657dbe557d76U, 0x3e557d76be6d3612U, 0xbe0277573c3dc4dbU, 0xbda60c403cbdc4dbU,
  0xbe6d3612bef9125fU, 0x3e1a2ff2bcbdc4dbU, 0xbe6159c400000000U, 0x3da60c403d8e53a4U,
  0xbe0e53a4bf201e19U, 0xbdd57d76be260c40U, 0xbe8e53a4be027757U, 0x3d3dc4db00000000U,
  0x3d3dc4dbbf290353U, 0x3c3dc4dbbdbdc4dbU, 0xbdd57d76beff0086U, 0x3dd57d763dbdc4dbU,
  0xbd6d36123da60c40U, 0xbc3dc4db3d6d3612U, 0xbd6d3612be6d3612U, 0xbcbdc4db3dbdc4dbU,
  0xbeabfa663e1a2ff2U, 0xbcbdc4dbbe79125fU, 0xbd0e53a4be9441cbU, 0x3dd57d763e260c40U,
  0xbe1a2ff23e557d76U, 0xbd3dc4db00000000U, 0xbd6d3612be557d76U, 0xbd3dc4db00000000U,
  0xbed57d763e027757U, 0xbc3dc4dbbe1a2ff2U, 0xbe027757be557d76U, 0x3cbdc4db3e31e88dU,
  0xbee159c43e1a2ff2U, 0xbe31e88d3c3dc4dbU, 0x3d0e53a4be0e53a4U, 0xbda60c403da60c40U,
  0xbf08657d3d6d3612U, 0xbd6d36123d0e53a4U, 0xbda60c40bdd57d76U, 0xbded36123d0e53a4U,
  0xbed57d76bec9a129U, 0xbd8e53a4bd0e53a4U, 0xbda60c40be3dc4dbU, 0xbd8e53a43d8e53a4U,
  0xbebdc4dbbe6159c4U, 0x3e0e53a4bda60c40U, 0xbe0e53a4bded3612U, 0xbdbdc4db3c3dc4dbU,
  0xbe79125fbe6d3612U, 0xbcbdc4db3ded3612U, 0xbd0e53a4bd3dc4dbU, 0x3d0e53a4be0e53a4U,
  0xbdd57d763d3dc4dbU, 0xbcbdc4db3d6d3612U, 0xbda60c40bd6d3612U, 0x3ded36123cbdc4dbU,
  0xbd8e53a4be6159c4U, 0xbe3dc4db3e31e88dU, 0xbe0e53a400000000U, 0x3da60c403cbdc4dbU,
  0xbd8e53a4bec9a129U, 0xbda60c403e027757U, 0xbcbdc4db3e027757U, 0xbc3dc4db3e6159c4U,
  0x3d3dc4db3d0e53a4U, 0x3e88657dbee747ebU, 0x3e31e88d3e1a2ff2U, 0xbe3dc4dbbe31e88dU,
  0xbe557d76bd8e53a4U, 0x3d3dc4dbbea01e19U, 0x3d3dc4db3dd57d76U, 0x3e027757be1a2ff2U,
  0xbe0277573cbdc4dbU, 0x3c3dc4db00000000U, 0x3e31e88d3e260c40U, 0xbded3612bded3612U,
  0xbe260c403d3dc4dbU, 0xbd0e53a4bebdc4dbU, 0x3e31e88d3e8e53a4U, 0xbd0e53a4be027757U,
  0xbe31e88dbc3dc4dbU, 0x3e1a2ff2bd6d3612U, 0x3e557d763ec9a129U, 0x3d6d3612bd6d3612U,
  0xbe6d3612bd3dc4dbU, 0xbd6d36123da60c40U, 0x3e8277573e79125fU, 0xbcbdc4db3dbdc4dbU,
  0xbec3b302be260c40U, 0xbd3dc4dbbded3612U, 0x3e31e88d3e260c40U, 0xbd6d36123da60c40U,
  0xbe9a2ff2be027757U, 0x3d0e53a43da60c40U, 0x3e0277573e3dc4dbU, 0xbcbdc4db3d6d3612U,
  0xbe0e53a4be557d76U, 0xbeabfa66bc3dc4dbU, 0x3e1a2ff23da60c40U, 0xbe3dc4dbbe3dc4dbU,
  0xbcbdc4dbbd6d3612U, 0xbe6d36123dbdc4dbU, 0x3d3dc4dbbd3dc4dbU, 0xbe0277573e027757U,
  0x3cbdc4dbbe557d76U, 0xbe9441cbbe8e53a4U, 0xbe0e53a400000000U, 0x3d3dc4dbbd0e53a4U,
  0xbd3dc4dbbf027757U, 0xbda60c403d6d3612U, 0xbec9a1293da60c40U, 0x3d3dc4db3ef9125fU,
  0xbe260c403dd57d76U, 0x3e6159c43d0e53a4U, 0x3e6d3612bed57d76U, 0xbd0e53a400000000U,
  0x3e1a2ff23d0e53a4U, 0x3e3dc4db3d6d3612U, 0x3d6d3612bec3b302U, 0x3d3dc4db3e1a2ff2U,
  0xbe3dc4dbbdbdc4dbU, 0x3f0b5c91be027757U, 0x3e557d76beb7d6b4U, 0x3e88657dU,
  0xbee747eb3d8e53a4U, 0x3f0277573e31e88dU, 0x3e027757be260c40U, 0x3d0e53a43e8e53a4U,
  0xbec9a129bd3dc4dbU, 0x3ec3b302bd8e53a4U, 0x3e6159c43e79125fU, 0x3d6d36123edb6b9dU,
  0xbee747eb00000000U, 0x3f114ab8bded3612U, 0x3e31e88dbd6d3612U, 0x3dd57d763dbdc4dbU,
  0xbeb1e88dbe31e88dU, 0x3eff00863e260c40U, 0xbd0e53a43e6159c4U, 0x3dd57d763e31e88dU,
  0xbe6d3612bded3612U, 0x3ec9a1293da60c40U, 0xbe88657d3cbdc4dbU, 0x3d8e53a43ded3612U,
  0xbe827757be3dc4dbU, 0x3e0e53a4be0e53a4U, 0xbe6159c43c3dc4dbU, 0xbded36123d8e53a4U,
  0x3e260c40bcbdc4dbU, 0x3c3dc4db3e6159c4U, 0xbe027757bda60c40U, 0xbded3612be557d76U,
  0x3e79125fbdd57d76U, 0x3cbdc4dbbe3dc4dbU, 0xbe3dc4dbbdd57d76U, 0xbc3dc4dbbdd57d76U,
  0x3e49a129be6d3612U, 0xbded36123ded3612U, 0xbec3b302bdbdc4dbU, 0xbe0e53a43da60c40U,
  0x3cbdc4dbbd3dc4dbU, 0x3e9a2ff23e3dc4dbU, 0xbe3dc4db3f0b5c91U, 0x3e3dc4dbbd3dc4dbU,
  0xbd6d36123e3dc4dbU, 0x3d0e53a43e3dc4dbU, 0xbea60c403ea01e19U, 0x3d3dc4db3da60c40U,
  0xbd8e53a43e9441cbU, 0x3e6159c43dbdc4dbU, 0xbd6d36123ee747ebU, 0x3c3dc4db3e557d76U,
  0xbd0e53a43e6159c4U, 0x3e0277573e827757U, 0xbd8e53a43eabfa66U, 0x3dbdc4db3e827757U,
  0xbe31e88d3e3dc4dbU, 0x3e1a2ff23e3dc4dbU, 0x3e6159c4U, 0xbe31e88d3e827757U,
  0xbe88657d3e8e53a4U, 0x3e6d36123cbdc4dbU, 0xbd8e53a43e8e53a4U, 0xbeb1e88d3ee747ebU,
  0xbec3b3023e88657dU, 0x3e0277573e6d3612U, 0xbdbdc4db3e0e53a4U, 0xbd6d36123ec9a129U,
  0xbe9441cb3da60c40U, 0xbd0e53a43ee747ebU, 0xbd0e53a4bd3dc4dbU, 0xbea60c403ea01e19U,
  0xbdd57d76bdbdc4dbU, 0xbea01e19bc3dc4dbU, 0x3d8e53a4bc3dc4dbU, 0xbea01e193dd57d76U,
  0xbcbdc4db00000000U, 0xbe31e88d3dd57d76U, 0xbe9441cbbded3612U, 0xbc3dc4db3e9441cbU,
  0x3ea60c40bcbdc4dbU, 0x3d3dc4db3cbdc4dbU, 0xbd6d36123d3dc4dbU, 0x3dbdc4db3ecf8f50U,
  0xbe027757be9a2ff2U, 0xbea01e19be3dc4dbU, 0xbd8e53a43c3dc4dbU, 0xbe31e88dbdbdc4dbU,
  0xbe88657dbdd57d76U, 0x3e31e88d3e3dc4dbU, 0x3e6159c43e0e53a4U, 0xbe0e53a4bd8e53a4U,
  0x3da60c40bc3dc4dbU, 0x3dd57d763eb7d6b4U, 0x3e9441cbU, 0x3cbdc4db3da60c40U,
  0xbeb7d6b43c3dc4dbU, 0x3e88657d3dd57d76U, 0x3dd57d763e8e53a4U, 0x3c3dc4dbbd8e53a4U,
  0xbeb1e88dbe6d3612U, 0x3e827757bded3612U, 0x3e88657d3d6d3612U, 0x3e557d763ebdc4dbU,
  0xbf0b5c913d0e53a4U, 0x3ea01e19bdd57d76U, 0x3d3dc4db3e0e53a4U, 0xbda60c403f0e53a4U,
  0xbec3b302bdbdc4dbU, 0x3e3dc4dbbe3dc4dbU, 0x3d8e53a43e49a129U, 0xbda60c403ea60c40U,
  0xbed57d763d0e53a4U, 0x3f260c40bf08657dU, 0xbd6d3612bc3dc4dbU, 0x3cbdc4db3f1738dfU,
  0xbf43b302bded3612U, 0x3e0e53a4bebdc4dbU, 0xbe88657dbda60c40U, 0x3c3dc4db3f027757U,
  0xbebdc4dbbe88657dU, 0x3d6d3612bda60c40U, 0xbd8e53a4bc3dc4dbU, 0xbd3dc4db3ef32439U,
  0xbe31e88dbeb1e88dU, 0x3ebdc4dbbe31e88dU, 0x3da60c40be31e88dU, 0x3e79125f3e49a129U,
  0x3e8e53a4bdd57d76U, 0x3e3dc4db3e260c40U, 0xbc3dc4dbbe0e53a4U, 0x3e027757bd6d3612U,
  0x3ec9a129be79125fU, 0xbe49a1293ded3612U, 0xbe0277573dd57d76U, 0x3e0277573e027757U,
  0xbded3612be557d76U, 0xbcbdc4db3f31e88dU, 0xbd8e53a4bded3612U, 0x3d3dc4db3e6159c4U,
  0xbea60c40bdd57d76U, 0x3d6d3612be88657dU, 0x3e8e53a43e827757U, 0xbc3dc4dbbe31e88dU,
  0xbf1d2705be557d76U, 0x3d8e53a4bee747ebU, 0x3e0e53a43e9441cbU, 0x3dd57d763e260c40U,
  0xbee747ebbe79125fU, 0x3d3dc4dbbf2bfa66U, 0x3d3dc4db3e3dc4dbU, 0xbd6d36123d0e53a4U,
  0xbe0e53a43d0e53a4U, 0xbda60c40bf37d6b4U, 0xbcbdc4db3d8e53a4U, 0x3d3dc4db3c3dc4dbU,
  0x3dbdc4dbbe557d76U, 0xbea60c403cbdc4dbU, 0xbdbdc4dbbe31e88dU, 0x3dbdc4dbbcbdc4dbU,
  0x3d8e53a4beb1e88dU, 0xbd3dc4db3e8e53a4U, 0xbe3dc4dbbed57d76U, 0xbe31e88d3e1a2ff2U,
  0x3d6d3612bea60c40U, 0xbc3dc4db3e8e53a4U, 0xbe027757becf8f50U, 0x3cbdc4db3c3dc4dbU,
  0x3d3dc4dbbf1a2ff2U, 0x3e827757U, 0xbe827757be79125fU, 0xbcbdc4db3ded3612U,
  0x3d6d3612beb7d6b4U, 0xbcbdc4db3eb1e88dU, 0x3dbdc4dbbd8e53a4U, 0x3dbdc4dbU,
  0x3cbdc4dbbe9a2ff2U, 0x3cbdc4db3e9a2ff2U, 0x3da60c40bd6d3612U, 0xbc3dc4dbbdbdc4dbU,
  0xbc3dc4dbbe827757U, 0xbd6d36123e8e53a4U, 0xbd3dc4db3da60c40U, 0xbd3dc4dbbdd57d76U,
  0xbed57d76be827757U, 0xbe1a2ff2be260c40U, 0x3e3dc4dbbeb1e88dU, 0x3e6159c4bd6d3612U,
  0x3cbdc4dbbdd57d76U, 0x3eabfa66be1a2ff2U, 0x3e79125f3e0e53a4U, 0xbeb7d6b4bd8e53a4U,
  0x3ded3612be49a129U, 0x3e827757bcbdc4dbU, 0x3d3dc4db3e1a2ff2U, 0xbe8e53a4bea60c40U,
  0x3e8e53a4bd3dc4dbU, 0x3ded36123dbdc4dbU, 0x3e31e88d3da60c40U, 0xbe1a2ff2be49a129U,
  0x3cbdc4dbbd0e53a4U, 0xbded36123e3dc4dbU, 0xbc3dc4dbbe0e53a4U, 0x3d8e53a4be31e88dU,
  0xbe027757bd8e53a4U, 0xbe9441cb3e260c40U, 0x3d0e53a4bdd57d76U, 0xbe8e53a43ded3612U,
  0xbcbdc4db3c3dc4dbU, 0xbe0277573e88657dU, 0xbc3dc4dbbe88657dU, 0xbc3dc4db3d6d3612U,
  0xbe1a2ff23d0e53a4U, 0xbd0e53a43dbdc4dbU, 0xbd3dc4dbbea01e19U, 0xbe79125f3c3dc4dbU,
  0xbda60c40bcbdc4dbU, 0xbdd57d763dbdc4dbU, 0xbd6d3612be260c40U, 0xbd8e53a43d8e53a4U,
  0xbcbdc4dbbe027757U, 0xbdd57d76U, 0x3dbdc4db3e027757U, 0xbd0e53a43d6d3612U,
  0x3e027757U, 0xbd3dc4db3d8e53a4U, 0xbdd57d763da60c40U, 0xbda60c40bda60c40U,
  0xbd8e53a43e0e53a4U, 0x3ded3612bd6d3612U, 0xbe0e53a43cbdc4dbU, 0xbe0e53a43da60c40U,
  0x3ec3b302be0e53a4U, 0x3e0e53a4be557d76U, 0x3e31e88dbe260c40U, 0x3f1738dfbcbdc4dbU,
  0xbe3dc4db3da60c40U, 0x3dbdc4dbbe3dc4dbU, 0x3c3dc4db3ded3612U, 0x3cbdc4dbbe3dc4dbU,
  0x3e1a2ff23d8e53a4U, 0x3d8e53a43d8e53a4U, 0x3e49a1293dd57d76U, 0x3e557d76bf1d2705U,
  0x3d6d36123d3dc4dbU, 0xbe027757bdbdc4dbU, 0x3cbdc4dbbded3612U, 0xbe3dc4dbbda60c40U,
  0x3dbdc4dbbd8e53a4U, 0xbd0e53a4bda60c40U, 0xbeb1e88dbe49a129U, 0xbe3dc4dbbe6d3612U,
  0x3dbdc4dbbdd57d76U, 0xbd8e53a43d8e53a4U, 0xbe557d763e6159c4U, 0xbded3612bd0e53a4U,
  0x3d0e53a4be0e53a4U, 0xbd8e53a43dd57d76U, 0xbd0e53a4bed57d76U, 0x3e260c403e827757U,
  0x3d0e53a4bcbdc4dbU, 0xbded36123e6159c4U, 0xbd6d3612U, 0x3ea60c403e49a129U,
  0x3e0e53a4be6159c4U, 0x3d3dc4db3ded3612U, 0xbd0e53a4bd8e53a4U, 0x3e8277573e1a2ff2U,
  0xbdbdc4dbbe88657dU, 0x3d6d3612bd0e53a4U, 0xbd3dc4dbbd0e53a4U, 0x3e79125f3e6d3612U,
  0x3c3dc4dbbe6d3612U, 0x3d3dc4dbbe557d76U, 0xbd3dc4dbbd6d3612U, 0x3e31e88d3e49a129U,
  0xbe0e53a43e827757U, 0x3dbdc4db3ded3612U, 0xbe827757U, 0x3e3dc4db3e88657dU,
  0x3e260c403e49a129U, 0x3ee747eb3ea01e19U, 0xbe6159c43e79125fU, 0x3f056e6abedb6b9dU,
  0x3ea01e193e79125fU, 0x3e1a2ff23e0e53a4U, 0x3e1a2ff2bdd57d76U, 0xbdd57d76bf027757U,
  0x3ea01e193d3dc4dbU, 0x3e49a12900000000U, 0xbd0e53a43ded3612U, 0x3d6d3612be49a129U,
  0x3eb1e88d3d6d3612U, 0xbd0e53a43ded3612U, 0x3d3dc4dbbda60c40U, 0xbed57d76be49a129U,
  0x3e31e88dbe260c40U, 0x3da60c403e49a129U, 0xbe557d76bc3dc4dbU, 0xbd6d3612bd3dc4dbU,
  0xbd6d3612bd3dc4dbU, 0x3e6d3612be49a129U, 0x3e557d7600000000U, 0xbd8e53a43dd57d76U,
  0xbe9a2ff2be9a2ff2U, 0xbdd57d76be027757U, 0x3c3dc4dbbcbdc4dbU, 0x3eb7d6b43e260c40U,
  0xbe1a2ff2bea60c40U, 0xbdd57d763c3dc4dbU, 0xbc3dc4db3dd57d76U, 0x3e557d763e49a129U,
  0xbe88657d3dbdc4dbU, 0xbda60c403c3dc4dbU, 0x3cbdc4db3d8e53a4U, 0x3e6d36123e31e88dU,
  0xbdbdc4dbbe1a2ff2U, 0x3e0e53a4bd0e53a4U, 0x3dd57d763c3dc4dbU, 0x3e79125f3e6d3612U,
  0xbe8277573dbdc4dbU, 0xbd6d3612be557d76U, 0xbc3dc4dbbd6d3612U, 0x3e6159c43e6d3612U,
  0xbe9441cb3e9a2ff2U, 0x3e8277573d0e53a4U, 0x3e31e88dbdbdc4dbU, 0x3e9a2ff2be0e53a4U,
  0x3ec3b30200000000U, 0x3e79125fbe6159c4U, 0xbe9441cbbe31e88dU, 0x3c3dc4dbbef9125fU,
  0x3d3dc4db3d3dc4dbU, 0x3e260c403e6d3612U, 0xbe9a2ff2be1a2ff2U, 0xbe260c40bed57d76U,
  0xbe827757be0e53a4U, 0x3ec3b3023e9a2ff2U, 0x3d8e53a4U, 0xbec3b302beb7d6b4U,
  0xbe8e53a43e49a129U, 0x3e0e53a43e6d3612U, 0xbd8e53a4be6d3612U, 0x3c3dc4dbbe31e88dU,
  0x3e0e53a43d8e53a4U, 0xbe260c403e6159c4U, 0x3e31e88dbd6d3612U, 0xbe9441cbbd3dc4dbU,
  0x3e027757bdd57d76U, 0xbe79125fbda60c40U, 0x3d0e53a4bc3dc4dbU, 0xbe49a1293d8e53a4U,
  0xbd3dc4dbbded3612U, 0xbe0e53a43d8e53a4U, 0x3e79125fU, 0x3dd57d763e027757U,
  0x3e0e53a43da60c40U, 0xbda60c403dbdc4dbU, 0x3da60c403eb1e88dU, 0x3e6d36123e027757U,
  0xbdbdc4dbbded3612U, 0xbc3dc4db3da60c40U, 0xbe79125f3da60c40U, 0x3e8e53a4bd3dc4dbU,
  0xbdd57d76becf8f50U, 0xbe3dc4dbbedb6b9dU, 0x3cbdc4db3d3dc4dbU, 0xbdbdc4db3c3dc4dbU,
  0x3d0e53a43c3dc4dbU, 0x3dd57d76bda60c40U, 0xbd8e53a43d3dc4dbU, 0xbe79125fbe9441cbU,
  0xbe6d3612be260c40U, 0x3f23152cbe8e53a4U, 0xbd0e53a4U, 0x3da60c403ded3612U,
  0x3d8e53a43d6d3612U, 0x3f056e6a3d0e53a4U, 0xbe1a2ff23eed3612U, 0x3f027757bec9a129U,
  0xbeabfa663da60c40U, 0x3d8e53a43e31e88dU, 0xbe260c40bd8e53a4U, 0x3d6d3612bedb6b9dU,
  0x3ea60c403e827757U, 0x3e260c403dd57d76U, 0xbd0e53a43e1a2ff2U, 0x3da60c40bedb6b9dU,
  0xbe827757be0e53a4U, 0x3e9441cb3e027757U, 0xbdbdc4dbbded3612U, 0xbe31e88dbf0b5c91U,
  0xbea01e19be88657dU, 0xbeed36123e1a2ff2U, 0x3ded3612be1a2ff2U, 0xbe260c403e8e53a4U,
  0x3ded3612bdd57d76U, 0x3e027757be31e88dU, 0x3cbdc4dbbe027757U, 0xbe9a2ff23dd57d76U,
  0x3e027757becf8f50U, 0xbe3dc4db3e1a2ff2U, 0x3e027757be557d76U, 0x3ded3612bcbdc4dbU,
  0x3e1a2ff2be1a2ff2U, 0xbe827757be9a2ff2U, 0xbc3dc4db3ea60c40U, 0x3e1a2ff200000000U,
  0x3e6d3612bdd57d76U, 0xbc3dc4db3dbdc4dbU, 0x3e0277573ee159c4U, 0x3da60c403e1a2ff2U,
  0x3d8e53a4bda60c40U, 0x3e1a2ff23e1a2ff2U, 0x3eb7d6b43e88657dU, 0x3e49a129be0e53a4U,
  0x3ea01e193d0e53a4U, 0xbda60c403e027757U, 0x3e79125f3d0e53a4U, 0xbc3dc4dbbe79125fU,
  0x3e9441cb3e6159c4U, 0x3ded36123e260c40U, 0x3dbdc4db3e260c40U, 0x3e9441cb3c3dc4dbU,
  0x3d6d3612be1a2ff2U, 0xbed57d763cbdc4dbU, 0x3d6d36123e31e88dU, 0x3e0e53a43e31e88dU,
  0xbc3dc4dbbecf8f50U, 0xbea60c40bd8e53a4U, 0x3cbdc4dbbe6159c4U, 0xbd3dc4dbU,
  0xbe3dc4dbbe49a129U, 0xbee747ebbeb1e88dU, 0xbef9125fU, 0x3d8e53a43eb1e88dU,
  0xbed57d76be9441cbU, 0xbeabfa66beed3612U, 0x3e027757bf08657dU, 0x3e49a1293dbdc4dbU,
  0xbf260c40be88657dU, 0xbda60c40bea60c40U, 0x3d3dc4dbbf37d6b4U, 0xbe31e88d3cbdc4dbU,
  0xbea01e19be88657dU, 0xbe260c40bded3612U, 0x3d3dc4db3d0e53a4U, 0xbd6d3612bd3dc4dbU,
  0xbe0277573d0e53a4U, 0xbda60c40be0e53a4U, 0x3e0e53a43dd57d76U, 0x3e1a2ff2bded3612U,
  0x3cbdc4db3d8e53a4U, 0xbded3612bda60c40U, 0x3da60c403e6d3612U, 0xbe3dc4dbbded3612U,
  0x3d6d3612bc3dc4dbU, 0xbdbdc4dbbdbdc4dbU, 0x3d8e53a43e3dc4dbU, 0x3e49a129bdbdc4dbU,
  0x3e0e53a43d3dc4dbU, 0xbe027757bd3dc4dbU, 0x3e79125fU, 0x3d8e53a43da60c40U,
  0x3da60c403d8e53a4U, 0xbd8e53a4bdbdc4dbU, 0x3d8e53a43e9441cbU, 0x3e1a2ff23e79125fU,
  0x3ded36123e0e53a4U, 0xbe6159c4bc3dc4dbU, 0xbe260c403ebdc4dbU, 0x3e260c403dbdc4dbU,
  0xbe49a129bded3612U, 0x3e557d763c3dc4dbU, 0xbe8e53a43dbdc4dbU, 0x3edb6b9dbe88657dU,
  0xbd8e53a4be8e53a4U, 0xbc3dc4db3dbdc4dbU, 0x3c3dc4dbbe557d76U, 0x3e3dc4dbbd8e53a4U,
  0xbe6159c4bd0e53a4U, 0xbcbdc4dbbe0e53a4U, 0xbcbdc4db3d3dc4dbU, 0x3cbdc4dbbe027757U,
  0xbdbdc4dbbd6d3612U, 0xbd0e53a43d8e53a4U, 0xbdbdc4db3dd57d76U, 0xbcbdc4dbbd8e53a4U,
  0xbe9a2ff2bd8e53a4U, 0xbdd57d763dbdc4dbU, 0x3c3dc4db3e260c40U, 0xbea60c403e557d76U,
  0xbdbdc4db3e31e88dU, 0xbeb7d6b4bcbdc4dbU, 0x3dd57d763d8e53a4U, 0xbe9a2ff23ea01e19U,
  0xbd0e53a4U, 0xbe557d76bd6d3612U, 0x3ded36123e3dc4dbU, 0xbec9a1293e6d3612U,
  0xbd3dc4dbbc3dc4dbU, 0xbe88657d3d6d3612U, 0x3d6d3612be3dc4dbU, 0xbd6d36123e31e88dU,
  0xbdd57d76bdd57d76U, 0xbe6d36123d3dc4dbU, 0xbe260c40bea01e19U, 0x3e557d763e88657dU,
  0xbda60c403d6d3612U, 0xbdd57d76bdbdc4dbU, 0x3c3dc4dbbeb1e88dU, 0x3f0e53a43e6159c4U,
  0xbe827757be027757U, 0xbe6d3612U, 0x3dbdc4dbbe1a2ff2U, 0x3ebdc4db3e6159c4U,
  0xbee159c4bded3612U, 0xbc3dc4db3ded3612U, 0xbd8e53a4be31e88dU, 0x3e8e53a43eff0086U,
  0x3ef9125fbe557d76U, 0xbcbdc4db3ea01e19U, 0xbe827757U, 0xbec9a129be8e53a4U,
  0x3e1a2ff2be027757U, 0xbded36123c3dc4dbU, 0x3e0e53a4be8e53a4U, 0xbec3b302bc3dc4dbU,
  0x3eff0086be9a2ff2U, 0xbd8e53a43cbdc4dbU, 0x3d6d36123c3dc4dbU, 0xbe88657dbe557d76U,
  0x3e3dc4dbbea01e19U, 0x3dd57d763d0e53a4U, 0xbd0e53a43d8e53a4U, 0xbd3dc4dbU,
  0x3e1a2ff2bcbdc4dbU, 0x3e79125fbc3dc4dbU, 0xbe557d76bc3dc4dbU, 0x3ded36123e49a129U,
  0xbe557d76bdd57d76U, 0x3e88657dbe027757U, 0xbe9441cb3da60c40U, 0x3ebdc4dbU,
  0xbd6d36123ded3612U, 0x3e3dc4db3e1a2ff2U, 0xbdd57d763e827757U, 0x3cbdc4db3e0e53a4U,
  0x3dbdc4db3e6d3612U, 0xbe3dc4dbbc3dc4dbU, 0xbe31e88d3d0e53a4U, 0x3e31e88d3dbdc4dbU,
  0x3ea01e193e0e53a4U, 0xbea60c40be260c40U, 0xbe027757bc3dc4dbU, 0xbd3dc4dbbe49a129U,
  0x3ea60c403d0e53a4U, 0xbdbdc4db3d8e53a4U, 0x3c3dc4dbbe49a129U, 0xbe88657dbded3612U,
  0xbc3dc4db3d8e53a4U, 0xbe49a1293ded3612U, 0x3cbdc4db3dd57d76U, 0xbd0e53a4be31e88dU,
  0x3da60c403ec3b302U, 0xbe260c40bdd57d76U, 0x3dbdc4dbbded3612U, 0xbea60c40bcbdc4dbU,
  0x3d0e53a4be827757U, 0xbdd57d76bda60c40U, 0xbe027757bd0e53a4U, 0xbeb7d6b43c3dc4dbU,
  0x3d6d3612be6d3612U, 0xbdbdc4dbbed57d76U, 0xbe31e88dbdd57d76U, 0xbe9441cb3e6d3612U,
  0xbe6d3612bc3dc4dbU, 0x3ebdc4dbbdd57d76U, 0xbe79125fbe0e53a4U, 0xbe6d36123d8e53a4U,
  0xbd3dc4db3dbdc4dbU, 0xbded36123d0e53a4U, 0x3e49a1293e88657dU, 0xbe3dc4dbbded3612U,
  0x3e1a2ff2be3dc4dbU, 0x3ded3612be1a2ff2U, 0xbe1a2ff23da60c40U, 0x3e49a1293d8e53a4U,
  0x3e3dc4dbbe1a2ff2U, 0xbcbdc4dbbded3612U, 0xbd6d36123d3dc4dbU, 0xbd3dc4dbbe027757U,
  0x3e79125fbe557d76U, 0xbe557d7600000000U, 0xbda60c40be0e53a4U, 0xbe8e53a4bd8e53a4U,
  0x3e557d76be6159c4U, 0xbcbdc4dbU, 0xbdbdc4db00000000U, 0xbd6d3612bd0e53a4U,
  0x3dd57d76bd3dc4dbU, 0xbdd57d763d3dc4dbU, 0xbdbdc4dbbe9441cbU, 0xbee747ebbe8e53a4U,
  0xbef9125fbded3612U, 0xbc3dc4dbbda60c40U, 0xbe6159c4beb1e88dU, 0xbecf8f50be260c40U,
  0x3d6d3612bdbdc4dbU, 0x3ded3612be6159c4U, 0xbd8e53a4bef9125fU, 0xbec9a1293da60c40U,
  0xbd3dc4dbbd3dc4dbU, 0x3e31e88dbd3dc4dbU, 0xbe79125fbee159c4U, 0xbe1a2ff2be79125fU,
  0xbdbdc4db3e557d76U, 0x3e1a2ff200000000U, 0x3ea01e193d3dc4dbU, 0x3e260c40be6159c4U,
  0x3e3dc4db3cbdc4dbU, 0x3e88657d3d8e53a4U, 0x3d0e53a43ea60c40U, 0x3d3dc4dbU,
  0x3e8277573d8e53a4U, 0x3dbdc4db3ded3612U, 0x3e260c403e9441cbU, 0x3da60c403da60c40U,
  0xbc3dc4db00000000U, 0xbd8e53a4be3dc4dbU, 0x3ef9125f3ec3b302U, 0xbe0e53a4be1a2ff2U,
  0x3dd57d76bcbdc4dbU, 0xbdd57d763e0e53a4U, 0xbd6d36123e827757U, 0xbc3dc4db3ded3612U,
  0xbcbdc4dbbda60c40U, 0xbe31e88d3eb1e88dU, 0xbe260c403e31e88dU, 0xbdbdc4dbbea60c40U,
  0x3e6d36123e027757U, 0x3cbdc4db3ea01e19U, 0x3ded3612bd8e53a4U, 0x3d3dc4dbbdbdc4dbU,
  0xbda60c403cbdc4dbU, 0x3ea01e193e0e53a4U, 0xbe027757bd6d3612U, 0xbe260c40be1a2ff2U,
  0x3ea01e193e0e53a4U, 0xbe6d36123e6159c4U, 0xbdd57d76be260c40U, 0xbe260c40bebdc4dbU,
  0x3e557d763eff0086U, 0xbe9441cb3d0e53a4U, 0xbd8e53a4U, 0x3e1a2ff2beb1e88dU,
  0x3e31e88d00000000U, 0x3da60c403e49a129U, 0xbe0277573dbdc4dbU, 0x3e827757bf1d2705U,
  0x3e88657d3f027757U, 0xbe557d763e6d3612U, 0xbd6d36123e79125fU, 0xbe88657dbe79125fU,
  0x3e79125f3cbdc4dbU, 0x3d0e53a4bd3dc4dbU, 0x3ee159c43e1a2ff2U, 0x3d6d3612bd6d3612U,
  0x3ecf8f50be9441cbU, 0xbda60c403e027757U, 0x3e88657dbef32439U, 0x3e1a2ff2bdd57d76U,
  0x3f1a2ff23e88657dU, 0x3e3dc4db3e9441cbU, 0x3dbdc4dbbc3dc4dbU, 0x3ec9a129U,
  0xbd3dc4dbbda60c40U, 0x3e9441cbbe6d3612U, 0x3ded36123ef9125fU, 0xbcbdc4dbbe9a2ff2U,
  0xbe6159c4be3dc4dbU, 0xbe0e53a43cbdc4dbU, 0xbc3dc4db3ec9a129U, 0xbe1a2ff23ded3612U,
  0xbeb1e88dbe9a2ff2U, 0xbe027757bc3dc4dbU, 0xbe827757bc3dc4dbU, 0xbd8e53a4beb7d6b4U,
  0xbd0e53a43e3dc4dbU, 0x3e827757U, 0xbd0e53a43ecf8f50U, 0xbe6d36123e49a129U,
  0x3e1a2ff23dd57d76U, 0xbea01e193dd57d76U, 0xbf027757bd6d3612U, 0xbd3dc4dbbef9125fU,
  0xbc3dc4db3e827757U, 0xbc3dc4dbbe6d3612U, 0xbed57d76bded3612U, 0xbe3dc4db3e3dc4dbU,
  0x3ded3612be0e53a4U, 0xbe9441cb3e6159c4U, 0x3d3dc4db3d0e53a4U, 0x3f056e6abe027757U,
  0xbc3dc4dbbe1a2ff2U, 0xbdbdc4dbbded3612U, 0x3eabfa663e88657dU, 0x3ea60c40bded3612U,
  0x3e027757be027757U, 0xbee159c43cbdc4dbU, 0x3ea60c403e260c40U, 0x3e88657d3dbdc4dbU,
  0xbeabfa66be9a2ff2U, 0xbd8e53a4be9a2ff2U, 0x3dbdc4dbbe3dc4dbU, 0xbdd57d76be0e53a4U,
  0xbee747ebbdbdc4dbU, 0xbe6159c4bf056e6aU, 0x3d8e53a4bcbdc4dbU, 0xbd6d3612be3dc4dbU,
  0xbe49a129be8e53a4U, 0xbe027757bec9a129U, 0xbe49a129U, 0xbe1a2ff23c3dc4dbU,
  0x3c3dc4dbbe1a2ff2U, 0xbe31e88dbe0e53a4U, 0xbd3dc4db3e027757U, 0xbded36123d0e53a4U,
  0x3da60c40bd3dc4dbU, 0xbe1a2ff23dbdc4dbU, 0x3d0e53a43ded3612U, 0xbe0e53a43dd57d76U,
  0x3dd57d76bd8e53a4U, 0xbe0277573da60c40U, 0xbcbdc4db3ded3612U, 0x3e88657d3e557d76U,
  0x3dd57d763d3dc4dbU, 0xbe1a2ff23d6d3612U, 0xbe260c403d8e53a4U, 0x3e6159c43d8e53a4U,
  0x3dd57d763d0e53a4U, 0xbe31e88d3d8e53a4U, 0xbcbdc4db00000000U, 0x3e9441cb3dd57d76U,
  0x3c3dc4dbbd3dc4dbU, 0xbe3dc4db3d8e53a4U, 0x3d0e53a4bda60c40U, 0x3d0e53a43e557d76U,
  0xbe027757be827757U, 0xbe0e53a4bebdc4dbU, 0x3cbdc4db3da60c40U, 0x3d6d36123d3dc4dbU,
  0xbec9a129bda60c40U, 0x3d0e53a4be6159c4U, 0xbd3dc4db3dbdc4dbU, 0x3d0e53a43e1a2ff2U,
  0xbec9a129bd6d3612U, 0x3e3dc4dbbe027757U, 0x3d6d36123e3dc4dbU, 0xbda60c403d3dc4dbU,
  0x3dbdc4db3e49a129U, 0xbd8e53a43e31e88dU, 0x3e1a2ff23e027757U, 0xbeff00863e31e88dU,
  0x3e0277573ded3612U, 0xbe49a129be31e88dU, 0x3e0e53a43e827757U, 0xbe49a129bc3dc4dbU,
  0xbe557d763d0e53a4U, 0xbe027757be0e53a4U, 0xbd6d36123eabfa66U, 0xbe8e53a43e79125fU,
  0xbe9a2ff23da60c40U, 0xbe31e88d3e1a2ff2U, 0x3da60c403e557d76U, 0xbeb1e88d3e1a2ff2U,
  0xbded36123d0e53a4U, 0xbe9441cb3d6d3612U, 0x3d8e53a4be6159c4U, 0xbe49a1293cbdc4dbU,
  0x3dd57d76bda60c40U, 0xbe3dc4dbbda60c40U, 0xbd6d3612bedb6b9dU, 0x3e6159c4bd6d3612U,
  0x3da60c40be6159c4U, 0xbd6d3612bdbdc4dbU, 0x3d8e53a4bd6d3612U, 0x3e3dc4db3c3dc4dbU,
  0xbe1a2ff2be827757U, 0x3e1a2ff23e0e53a4U, 0x3d6d3612bd3dc4dbU, 0x3e557d7600000000U,
  0xbd6d361200000000U, 0x3dbdc4db3e49a129U, 0xbc3dc4db3e027757U, 0x3e49a129be557d76U,
  0xbda60c403d0e53a4U, 0x3e557d76bd0e53a4U, 0xbd0e53a43e79125fU, 0x3e260c40be3dc4dbU,
  0xbded36123e3dc4dbU, 0x3e0e53a4be1a2ff2U, 0x3c3dc4db3e6159c4U, 0x3cbdc4db3d8e53a4U,
  0xbe0e53a43cbdc4dbU, 0x3d3dc4db3e0e53a4U, 0xbe79125f3e027757U, 0xbda60c403d0e53a4U,
  0x3f0277573e31e88dU, 0xbc3dc4dbbe0e53a4U, 0xbeb1e88dU, 0x3e260c4000000000U,
  0xbd0e53a400000000U, 0x3ef324393da60c40U, 0xbe31e88d3d3dc4dbU, 0xbd3dc4db3dbdc4dbU,
  0xbe260c403e827757U, 0x3ec9a129be8e53a4U, 0xbe8277573e1a2ff2U, 0xbdbdc4db3e6d3612U,
  0x3ded3612bd8e53a4U, 0xbded36123e260c40U, 0xbdbdc4dbbcbdc4dbU, 0xbdd57d763e79125fU,
  0x3ea60c403e31e88dU, 0xbe260c40beb1e88dU, 0xbec9a129bcbdc4dbU, 0xbdd57d763e0e53a4U,
  0x3e557d763e260c40U, 0xbee159c43e0e53a4U, 0xbd8e53a4bee747ebU, 0xbd8e53a43e88657dU,
  0x3eed3612bc3dc4dbU, 0xbe6159c43e827757U, 0xbdd57d76U, 0xbe6d3612bd0e53a4U,
  0x3ea60c40be0e53a4U, 0xbe49a129be79125fU, 0xbd6d36123da60c40U, 0xbe1a2ff2be1a2ff2U,
  0x3d3dc4dbbda60c40U, 0x3cbdc4db3d3dc4dbU, 0xbd0e53a43e260c40U, 0xbecf8f50be027757U,
  0xbe557d76U, 0x3d8e53a43e31e88dU, 0x3e557d76U, 0xbea60c403d8e53a4U,
  0xbea01e19bcbdc4dbU, 0xbded3612bcbdc4dbU, 0x3d3dc4db3d0e53a4U, 0xbe1a2ff2be1a2ff2U,
  0xbee159c4be88657dU, 0x3e557d763d8e53a4U, 0xbdbdc4dbbdbdc4dbU, 0xbded3612bec3b302U,
  0xbe557d763e027757U, 0x3ec3b3023d0e53a4U, 0xbda60c40be827757U, 0xbe6d3612be827757U,
  0xbe6d36123d0e53a4U, 0x3eb1e88d3e827757U, 0xbd3dc4dbbcbdc4dbU, 0xbe6d3612bda60c40U,
  0xbea01e19bd3dc4dbU, 0x3ded36123ea60c40U, 0x3dbdc4db3d8e53a4U, 0xbded3612be88657dU,
  0x3cbdc4db3c3dc4dbU, 0x3e6159c4bd8e53a4U, 0xbe31e88d3e1a2ff2U, 0x3e027757be79125fU,
  0xbe3dc4dbbe260c40U, 0xbe3dc4db3e31e88dU, 0xbd6d3612be6159c4U, 0xbe88657dbea01e19U,
  0x3d0e53a4bda60c40U, 0xbee159c4bd0e53a4U, 0xbe6d3612be31e88dU, 0x3d8e53a4be827757U,
  0x3e8e53a43d6d3612U, 0xbf1738dfbd8e53a4U, 0xbe3dc4dbbe6d3612U, 0xbd3dc4dbbd0e53a4U,
  0x3ebdc4db3d6d3612U, 0xbecf8f50bd0e53a4U, 0xbe31e88dbe6d3612U, 0xbe31e88d3d8e53a4U,
  0x3e49a129U, 0xbe3dc4dbbe79125fU, 0xbc3dc4db3d6d3612U, 0xbeabfa66bd6d3612U,
  0xbe260c403e88657dU, 0x3dd57d76beabfa66U, 0x3d0e53a43e88657dU, 0xbe31e88dbe6159c4U,
  0xbec9a1293e9a2ff2U, 0x3c3dc4dbbd6d3612U, 0x3e0e53a43e260c40U, 0xbda60c40be6d3612U,
  0xbdbdc4dbbdd57d76U, 0x3e557d763e6159c4U, 0xbc3dc4db3e49a129U, 0xbe3dc4dbbeb7d6b4U,
  0x3e6159c4be557d76U, 0x3d8e53a43e79125fU, 0x3eb1e88d3e79125fU, 0xbe260c403e3dc4dbU,
  0x3dd57d76bd8e53a4U, 0x3e8277573e31e88dU, 0xbe0e53a43dd57d76U, 0xbe6159c43e0e53a4U,
  0x3eed36123d0e53a4U, 0x3d0e53a43dd57d76U, 0x3dd57d76be9441cbU, 0x3e6159c43d0e53a4U,
  0xbda60c4000000000U, 0x3eb7d6b4be260c40U, 0xbded3612bded3612U, 0xbf056e6a3e31e88dU,
  0x3d6d36123e260c40U, 0xbe9441cbbded3612U, 0xbdbdc4dbbe31e88dU, 0xbe9a2ff2bded3612U,
  0x3eb7d6b43e827757U, 0xbef9125fbe88657dU, 0x3e027757be027757U, 0x3ec3b302be79125fU,
  0x3ea60c403e027757U, 0xbf37d6b4bec3b302U, 0x3d0e53a4be88657dU, 0x3ec3b302be557d76U,
  0x3c3dc4db3da60c40U, 0xbf5286633e0e53a4U, 0x3d0e53a4be0e53a4U, 0x3e3dc4dbbe0e53a4U,
  0x3eb7d6b43eb1e88dU, 0xbf056e6a3ebdc4dbU, 0xbeb1e88dbd8e53a4U, 0xbe79125fbee159c4U,
  0xbda60c40U, 0xbec9a129bc3dc4dbU, 0x3c3dc4db3e31e88dU, 0x3e260c40bec3b302U,
  0xbd3dc4dbbe6159c4U, 0xbd6d36123e557d76U, 0x3e027757bd0e53a4U, 0xbe6159c43d8e53a4U,
  0x3e9441cb3da60c40U, 0xbd3dc4dbbcbdc4dbU, 0x3cbdc4db3d0e53a4U, 0x3da60c40be0e53a4U,
  0x3d8e53a4bc3dc4dbU, 0x3dd57d763e0e53a4U, 0x3e49a129bd0e53a4U, 0x3ee747ebbdbdc4dbU,
  0xbeed36123cbdc4dbU, 0x3f2ef17a3ef32439U, 0xbdbdc4db3e0e53a4U, 0x3d8e53a43d3dc4dbU,
  0x3dd57d763da60c40U, 0x3e9441cbbda60c40U, 0x3d3dc4db3eb7d6b4U, 0xbe6159c4be827757U,
  0x3e6d36123d3dc4dbU, 0xbc3dc4db3e49a129U, 0xbd8e53a43e9a2ff2U, 0xbe8277573dd57d76U,
  0x3e49a1293dd57d76U, 0x3d0e53a4be0e53a4U, 0xbe0e53a4bcbdc4dbU, 0xbcbdc4db3dd57d76U,
  0x3f0e53a43e31e88dU, 0xbe88657dbd0e53a4U, 0xbe9441cb3d3dc4dbU, 0x3ec3b302bd0e53a4U,
  0x3f1738df3e260c40U, 0xbf761b4cbe027757U, 0x3d3dc4dbbe027757U, 0x3ee159c4be827757U,
  0x3e9441cb3e6d3612U, 0xbf23152cbe49a129U, 0x3e260c403e49a129U, 0x3eb7d6b4bdbdc4dbU,
  0xbcbdc4dbbebdc4dbU, 0xbf2bfa663c3dc4dbU, 0x3e9a2ff2bdbdc4dbU, 0x3da60c40bd0e53a4U,
  0x3eb1e88d3da60c40U, 0xbda60c403d3dc4dbU, 0x3da60c403ec3b302U, 0x3e9441cb3d8e53a4U,
  0xbe9a2ff2bd8e53a4U, 0xbe557d763d0e53a4U, 0xbd8e53a43e79125fU, 0xbdd57d76bec3b302U,
  0xbcbdc4db3eb7d6b4U, 0xbc3dc4db3ebdc4dbU, 0xbd8e53a43ebdc4dbU, 0xbd8e53a43c3dc4dbU,
  0x3dbdc4dbbe31e88dU, 0xbe6159c4bdd57d76U, 0x3e027757bdbdc4dbU, 0xbdd57d763e6159c4U,
  0xbcbdc4dbbe557d76U, 0xbda60c403cbdc4dbU, 0x3cbdc4db3dd57d76U, 0xbd0e53a43da60c40U,
  0x3d6d3612be6d3612U, 0xbd6d36123d3dc4dbU, 0xbd3dc4db3d6d3612U, 0xbe260c4000000000U,
  0x3dd57d76be6d3612U, 0xbc3dc4db3e31e88dU, 0xbded36123e0e53a4U, 0x3d8e53a4U,
  0x3d8e53a4bded3612U, 0x3d3dc4db3dbdc4dbU, 0xbcbdc4db3e1a2ff2U, 0xbc3dc4db3e027757U,
  0x3da60c40bd6d3612U, 0x3dd57d763e0e53a4U, 0xbdd57d763e31e88dU, 0xbd8e53a43dbdc4dbU,
  0x3e027757bded3612U, 0x3ded36123dbdc4dbU, 0xbd8e53a43d8e53a4U, 0x3d8e53a43d6d3612U,
  0x3dd57d76be31e88dU, 0x3e1a2ff23e557d76U, 0xbe0277573e31e88dU, 0x3d3dc4db3d6d3612U,
  0xbd6d3612be0e53a4U, 0x3e6159c43d6d3612U, 0xbe3dc4db3ded3612U, 0x3d3dc4db3c3dc4dbU,
  0x3cbdc4dbbe6159c4U, 0x3eb7d6b4be3dc4dbU, 0xbded36123e027757U, 0x3e3dc4db3c3dc4dbU,
  0x3d0e53a4be6159c4U, 0x3ec9a129bd3dc4dbU, 0xbeb1e88dbcbdc4dbU, 0x3e1a2ff23dd57d76U,
  0xbe88657dbee159c4U, 0x3e260c40bda60c40U, 0xbef32439be88657dU, 0x3d6d3612bda60c40U,
  0xbd3dc4dbbe260c40U, 0x3dbdc4dbbe9441cbU, 0xbdbdc4db3d0e53a4U, 0x3e9441cb3e260c40U,
  0xbe3dc4dbbc3dc4dbU, 0x3dbdc4db3d8e53a4U, 0x3d6d3612be557d76U, 0x3e260c403eb1e88dU,
  0xbe0e53a4be260c40U, 0x3d6d36123d6d3612U, 0xbdd57d76bd0e53a4U, 0x3eabfa663e79125fU,
  0xbeb7d6b43d0e53a4U, 0x3e0277573d3dc4dbU, 0x3da60c40U, 0x3e6d36123ea01e19U,
  0xbeed3612bd3dc4dbU, 0x3dd57d763e3dc4dbU, 0xbd0e53a4bd3dc4dbU, 0x3e6d36123e557d76U,
  0xbf08657d3d8e53a4U, 0x3dd57d763d3dc4dbU, 0xbdd57d76be3dc4dbU, 0x3e260c403e3dc4dbU,
  0xbf1a2ff23d0e53a4U, 0x3e0e53a43e79125fU, 0xbe0e53a4be027757U, 0x3d6d36123d8e53a4U,
  0xbf056e6abda60c40U, 0x3dd57d763ded3612U, 0xbe49a129be9a2ff2U, 0x3da60c403c3dc4dbU,
  0xbeabfa66be027757U, 0xbd3dc4db3d8e53a4U, 0xbded3612bea60c40U, 0x3dd57d76U,
  0xbee159c4be1a2ff2U, 0xbd0e53a43e6d3612U, 0xbe1a2ff2be557d76U, 0xbd3dc4dbbcbdc4dbU,
  0xbe1a2ff2bd3dc4dbU, 0xbda60c40bc3dc4dbU, 0xbe88657dbec9a129U, 0xbc3dc4dbbdbdc4dbU,
  0xbee159c4bd3dc4dbU, 0x3c3dc4db3da60c40U, 0xbeb1e88dbea01e19U, 0xbd3dc4db3e88657dU,
  0x3e0e53a43ed57d76U, 0xbe6d36123d3dc4dbU, 0x3ded3612U, 0xbe260c403d3dc4dbU,
  0xbe3dc4db3d8e53a4U, 0xbd8e53a4bc3dc4dbU, 0x3e557d76be31e88dU, 0xbd0e53a4bd0e53a4U,
  0xbda60c403da60c40U, 0xbea01e193d0e53a4U, 0xbd0e53a4bed57d76U, 0x3da60c403dbdc4dbU,
  0xbdd57d763e49a129U, 0xbcbdc4db3c3dc4dbU, 0x3da60c40bee159c4U, 0x3d3dc4db3d6d3612U,
  0xbcbdc4db3ded3612U, 0xbe6159c43dd57d76U, 0x3d8e53a4bebdc4dbU, 0x3da60c403e0e53a4U,
  0xbda60c403d8e53a4U, 0xbe31e88dbdd57d76U, 0x3d6d3612bec9a129U, 0x3dd57d763d6d3612U,
  0xbdd57d763da60c40U, 0xbe0277573e31e88dU, 0xbe49a129beabfa66U, 0x3e02775700000000U,
  0xbd8e53a4be6d3612U, 0xbe0277573e260c40U, 0xbc3dc4dbbe9a2ff2U, 0xbda60c40bd8e53a4U,
  0xbded36123e027757U, 0xbe79125f3e3dc4dbU, 0x3c3dc4dbbf0e53a4U, 0xbe49a129be260c40U,
  0xbdbdc4db3eb1e88dU, 0xbea60c403cbdc4dbU, 0x3d0e53a4bee747ebU, 0xbe9441cbbd3dc4dbU,
  0xbe3dc4dbbe49a129U, 0xbe88657dbda60c40U, 0xbda60c40U, 0xbe6d36123e1a2ff2U,
  0x3e027757bded3612U, 0xbee747ebbec3b302U, 0xbd3dc4dbbe1a2ff2U, 0xbe8277573e31e88dU,
  0x3dbdc4dbbe027757U, 0x3e3dc4dbbded3612U, 0xbe260c40bcbdc4dbU, 0xbda60c40U,
  0xbe1a2ff2be3dc4dbU, 0x3d8e53a43e49a129U, 0x3e3dc4dbbcbdc4dbU, 0xbe260c40bdd57d76U,
  0x3e6159c4bcbdc4dbU, 0xbe6159c43da60c40U, 0x3d6d3612bded3612U, 0xbe1a2ff2be557d76U,
  0x3c3dc4db3e0e53a4U, 0x3e0e53a4be49a129U, 0x3d0e53a400000000U, 0xbed57d76bdbdc4dbU,
  0x3c3dc4dbbd3dc4dbU, 0xbd3dc4dbbe79125fU, 0xbd8e53a4U, 0xbeb7d6b4be8e53a4U,
  0xbe0277573e49a129U, 0x3d0e53a4be31e88dU, 0x3d6d3612bd8e53a4U, 0xbeb7d6b4bd3dc4dbU,
  0xbc3dc4db00000000U, 0xbe0277573e027757U, 0xbdd57d76bdd57d76U, 0xbf08657dbe8e53a4U,
  0x3da60c403e8e53a4U, 0x3d8e53a4be6d3612U, 0xbd3dc4dbbd3dc4dbU, 0xbeb7d6b4bea01e19U,
  0x3cbdc4db3e0e53a4U, 0x3c3dc4dbbdd57d76U, 0xbd3dc4dbbda60c40U, 0xbe8277573da60c40U,
  0x3e260c403ea60c40U, 0x3e31e88d3d0e53a4U, 0x3e027757U, 0xbdbdc4dbbe8e53a4U,
  0xbcbdc4db00000000U, 0xbcbdc4dbbe31e88dU, 0xbe79125fbd6d3612U, 0xbe79125f3e557d76U,
  0x3d6d36123e0e53a4U, 0xbd6d36123e557d76U, 0xbe79125f3d3dc4dbU, 0x3e260c403da60c40U,
  0xbe557d763dbdc4dbU, 0xbdbdc4db3e31e88dU, 0xbcbdc4dbbe79125fU, 0x3e6159c4bd6d3612U,
  0xbe260c403e0e53a4U, 0x3dbdc4db3e260c40U, 0xbe557d76bee747ebU, 0x3e9a2ff2be49a129U,
  0xbe557d763e0e53a4U, 0xbded3612be6d3612U, 0x3d3dc4dbbe31e88dU, 0x3e6159c4bdbdc4dbU,
  0x3e79125fbcbdc4dbU, 0x3da60c40be49a129U, 0xbe8e53a43d0e53a4U, 0xbd0e53a43dbdc4dbU,
  0x3d6d36123d8e53a4U, 0x3cbdc4dbbd0e53a4U, 0xbe0277573d3dc4dbU, 0xbe88657dbda60c40U,
  0x3e49a1293e3dc4dbU, 0x3cbdc4db3da60c40U, 0x3d0e53a4be027757U, 0xbe49a129bd3dc4dbU,
  0xbcbdc4db3da60c40U, 0x3d0e53a4be9441cbU, 0x3e1a2ff23e557d76U, 0xbded3612bd3dc4dbU,
  0x3e260c403e0e53a4U, 0xbda60c40beabfa66U, 0x3e1a2ff23e6d3612U, 0xbedb6b9dbd0e53a4U,
  0x3dbdc4dbbc3dc4dbU, 0xbdbdc4dbbd3dc4dbU, 0x3e0e53a43eff0086U, 0xbda60c403e260c40U,
  0x3ee159c43d6d3612U, 0xbe31e88d3d8e53a4U, 0x3e1a2ff23eabfa66U, 0x3d3dc4db3dd57d76U,
  0x3d0e53a43cbdc4dbU, 0xbe49a129bd0e53a4U, 0x3eb7d6b43e1a2ff2U, 0x3d6d361200000000U,
  0x3eabfa663da60c40U, 0xbee159c4bdd57d76U, 0x3ec9a1293f1d2705U, 0x3e0277573dbdc4dbU,
  0xbe6d36123e260c40U, 0xbe9a2ff2bd3dc4dbU, 0xbdbdc4db3e9441cbU, 0xbe557d76beb1e88dU,
  0x3da60c40bda60c40U, 0xbe6d3612bc3dc4dbU, 0xbdd57d76bd0e53a4U, 0xbd6d36123d6d3612U,
  0xbdbdc4db3d6d3612U, 0x3eb1e88dbc3dc4dbU, 0xbd8e53a43e6159c4U, 0xbe1a2ff2bd3dc4dbU,
  0x3d3dc4db3cbdc4dbU, 0xbe31e88d3e827757U, 0xbea60c403e88657dU, 0xbd6d3612be1a2ff2U,
  0x3e1a2ff2be31e88dU, 0xbda60c40bc3dc4dbU, 0xbe79125f3dd57d76U, 0xbed57d76bd3dc4dbU,
  0xbd3dc4dbU, 0x3e49a129bc3dc4dbU, 0xbcbdc4db3f08657dU, 0xbeb1e88dbd3dc4dbU,
  0x3c3dc4dbbe8e53a4U, 0x3e557d763cbdc4dbU, 0x3e49a1293eed3612U, 0xbe49a129be31e88dU,
  0xbda60c40beb1e88dU, 0xbecf8f50U, 0x3eb1e88d3f23152cU, 0x3ded3612be8e53a4U,
  0xbd3dc4dbbf1441cbU, 0x3e31e88dbf027757U, 0x3f056e6a3e9a2ff2U, 0xbecf8f50bdbdc4dbU,
  0x3dbdc4dbbf027757U, 0xbcbdc4db3d6d3612U, 0x3edb6b9d3e1a2ff2U, 0xbd3dc4dbbe8e53a4U,
  0x3cbdc4dbbf290353U, 0xbd3dc4dbbee747ebU, 0x3ed57d763f260c40U, 0x3e6159c43ded3612U,
  0xbda60c40bf31e88dU, 0xbeabfa66U, 0x3f08657d3edb6b9dU, 0xbe49a1293f0b5c91U,
  0xbd3dc4dbbe31e88dU, 0xbe260c40be9a2ff2U, 0xbd8e53a4bda60c40U, 0x3d8e53a43d6d3612U,
  0xbdbdc4dbbdd57d76U, 0x3dbdc4dbbda60c40U, 0x3c3dc4dbbe260c40U, 0x3cbdc4dbbdbdc4dbU,
  0xbd6d36123da60c40U, 0x3ded3612bdd57d76U, 0xbcbdc4dbbe3dc4dbU, 0x3cbdc4db3d8e53a4U,
  0xbded36123d8e53a4U, 0x3d6d36123da60c40U, 0x3c3dc4db3d8e53a4U, 0xbd6d361200000000U,
  0xbd8e53a4bd6d3612U, 0x3c3dc4db3d3dc4dbU, 0x3e0e53a43dd57d76U, 0x3dd57d76U,
  0xbd0e53a4bdd57d76U, 0x3d6d36123d8e53a4U, 0x3d6d36123c3dc4dbU, 0xbdd57d763dbdc4dbU,
  0xbd3dc4db3c3dc4dbU, 0x3d6d36123e0e53a4U, 0xbda60c403cbdc4dbU, 0xbded36123e1a2ff2U,
  0xbd3dc4db3c3dc4dbU, 0x3d3dc4db3da60c40U, 0xbd0e53a43cbdc4dbU, 0xbd6d36123e49a129U,
  0xbe0277573da60c40U, 0x3dbdc4db3d0e53a4U, 0xbda60c403da60c40U, 0xbcbdc4db3dbdc4dbU,
  0xbd8e53a43e31e88dU, 0x3c3dc4db3e027757U, 0xbe0277573ded3612U, 0x3ded36123cbdc4dbU,
  0xbe0e53a43e027757U, 0x3d6d361200000000U, 0xbef324393da60c40U, 0xbdd57d763e31e88dU,
  0xbda60c403dd57d76U, 0x3d3dc4dbbdbdc4dbU, 0xbf2bfa663e027757U, 0xbeb1e88d3e0e53a4U,
  0xbe49a1293e0e53a4U, 0x3c3dc4db3e0e53a4U, 0x3ea01e19bc3dc4dbU, 0xbe3dc4db3da60c40U,
  0xbe31e88dbc3dc4dbU, 0x3e557d763e557d76U, 0xbd3dc4db3e79125fU, 0xbd0e53a43cbdc4dbU,
  0xbe1a2ff23e1a2ff2U, 0x3d3dc4dbbded3612U, 0xbd3dc4db3dbdc4dbU, 0xbe027757bd0e53a4U,
  0x3d3dc4db3e6d3612U, 0x3ded3612be3dc4dbU, 0xbe8e53a4bcbdc4dbU, 0xbe8e53a4bded3612U,
  0x3e0277573d6d3612U, 0x3da60c403ded3612U, 0xbe9a2ff23dd57d76U, 0xbe0e53a4be0e53a4U,
  0x3e6159c43d0e53a4U, 0x3d0e53a43e49a129U, 0xbe557d76bd0e53a4U, 0xbec9a129be1a2ff2U,
  0x3ea60c4000000000U, 0xbd8e53a43d6d3612U, 0xbe9a2ff23d6d3612U, 0xbf1441cb3c3dc4dbU,
  0x3ea60c40bd3dc4dbU, 0xbd3dc4dbbea01e19U, 0xbe9a2ff200000000U, 0xbf08657d3e0e53a4U,
  0x3eabfa66bc3dc4dbU, 0xbe3dc4dbU, 0xbe0277573d8e53a4U, 0xbebdc4db3e1a2ff2U,
  0x3e827757be260c40U, 0xbc3dc4dbbeabfa66U, 0x3d3dc4dbbd8e53a4U, 0xbebdc4db3e6d3612U,
  0x3e9a2ff2bed57d76U, 0x3d3dc4dbbeb7d6b4U, 0xbdd57d763c3dc4dbU, 0xbe1a2ff23ded3612U,
  0x3ea60c40bf1a2ff2U, 0xbd3dc4dbbdbdc4dbU, 0xbe49a129bda60c40U, 0xbe49a1293e8e53a4U,
  0xbd3dc4db3e557d76U, 0xbe88657dbc3dc4dbU, 0xbef32439U, 0xbe8e53a4bd0e53a4U,
  0xbd8e53a400000000U, 0x3da60c40bd3dc4dbU, 0x3da60c40bd0e53a4U, 0xbe260c403d0e53a4U,
  0xbd6d36123dd57d76U, 0x3da60c40bd8e53a4U, 0xbe1a2ff23e0e53a4U, 0xbe9a2ff2bda60c40U,
  0xbdbdc4db3d6d3612U, 0x3da60c40bcbdc4dbU, 0xbe8e53a43e1a2ff2U, 0xbeed36123da60c40U,
  0xbe79125f3dbdc4dbU, 0x3d6d3612bd8e53a4U, 0xbeb7d6b43dbdc4dbU, 0xbef32439bcbdc4dbU,
  0x3d6d36123d0e53a4U, 0x3dbdc4db3da60c40U, 0xbdd57d763e0e53a4U, 0xbf0277573da60c40U,
  0xbdbdc4db3e49a129U, 0x3e79125fbe8e53a4U, 0xbeb1e88d3dd57d76U, 0xbea60c40beb1e88dU,
  0xbdbdc4db3e88657dU, 0x3cbdc4db3c3dc4dbU, 0xbe3dc4db3c3dc4dbU, 0xbe9a2ff2bdbdc4dbU,
  0x3da60c403e3dc4dbU, 0xbdd57d76bd8e53a4U, 0xbe1a2ff23c3dc4dbU, 0xbeed36123cbdc4dbU,
  0x3e260c40be1a2ff2U, 0x3e1a2ff23e8e53a4U, 0xbe0277573da60c40U, 0xbee747ebbd3dc4dbU,
  0xbdbdc4db3dbdc4dbU, 0x3cbdc4db3da60c40U, 0xbe260c403dbdc4dbU, 0xbe49a1293dbdc4dbU,
  0xbdbdc4db3cbdc4dbU, 0x3e0e53a4be1a2ff2U, 0xbdbdc4db3dd57d76U, 0xbe79125f3d0e53a4U,
  0xbded3612be0e53a4U, 0xbda60c40be027757U, 0xbd8e53a4be31e88dU, 0x3e0e53a400000000U,
  0xbeb1e88d3e027757U, 0xbe0e53a43ec3b302U, 0xbeb1e88dbc3dc4dbU, 0x3dd57d763dd57d76U,
  0xbf08657d3e1a2ff2U, 0xbe1a2ff23e3dc4dbU, 0xbe1a2ff23e8e53a4U, 0xbedb6b9d3e31e88dU,
  0xbea60c403e0e53a4U, 0x3c3dc4db3ea60c40U, 0xbe6d36123e557d76U, 0xbf027757bd0e53a4U,
  0xbd6d36123c3dc4dbU, 0xbcbdc4db3e9a2ff2U, 0xbd8e53a43e8e53a4U, 0xbe8277573e557d76U,
  0x3d6d36123e6159c4U, 0x3e6159c4bc3dc4dbU, 0x3e260c403eabfa66U, 0xbeff00863d6d3612U,
  0xbd8e53a43ded3612U, 0x3dd57d763e827757U, 0x3d6d36123ea01e19U, 0xbe8e53a43cbdc4dbU,
  0xbcbdc4dbbe6159c4U, 0xbdbdc4dbbe827757U, 0x3e31e88d3e31e88dU, 0xbd0e53a4bd3dc4dbU,
  0xbe260c40U, 0xbd3dc4dbbe9a2ff2U, 0x3e0277573e3dc4dbU, 0xbe0e53a43c3dc4dbU,
  0x3d6d3612bee159c4U, 0x3e31e88dbe88657dU, 0x3eabfa66U, 0x3e9a2ff23d0e53a4U,
  0x3d8e53a4bea01e19U, 0x3dd57d76bf557d76U, 0x3e0277573d0e53a4U, 0x3e88657d3ded3612U,
  0xbdd57d76becf8f50U, 0x3e260c40be6d3612U, 0x3e79125f3e027757U, 0x3e6159c43dbdc4dbU,
  0xbe79125fbe260c40U, 0xbded36123ec3b302U, 0xbe9a2ff2beb1e88dU, 0xbeabfa663e88657dU,
  0xbf114ab8be0e53a4U, 0x3ec9a1293edb6b9dU, 0x3dbdc4dbbe557d76U, 0x3c3dc4db3ecf8f50U,
  0xbd6d36123d3dc4dbU, 0x3e557d763e0e53a4U, 0x3c3dc4dbbded3612U, 0x3cbdc4db3e31e88dU,
  0xbeed3612bd6d3612U, 0x3dd57d763e6d3612U, 0x3d6d36123cbdc4dbU, 0xbe0277573eabfa66U,
  0x3dd57d76be027757U, 0xbd6d36123e31e88dU, 0x3e31e88d3e0e53a4U, 0xbcbdc4db3ec9a129U,
  0xbe9441cbbd0e53a4U, 0x3da60c40be49a129U, 0x3d6d36123f0e53a4U, 0x3e260c403cbdc4dbU,
  0xbded3612bd3dc4dbU, 0x3d0e53a4beabfa66U, 0x3dbdc4db3e9441cbU, 0xbe1a2ff23d0e53a4U,
  0x3e6d3612be8e53a4U, 0xbe49a129bef9125fU, 0x3e6159c43e9a2ff2U, 0xbe260c403cbdc4dbU,
  0x3e827757be6159c4U, 0xbda60c40bee159c4U, 0x3ed57d763ed57d76U, 0x3ea01e19be557d76U,
  0x3e49a129be31e88dU, 0x3d0e53a4be3dc4dbU, 0x3e8277573e88657dU, 0x3e0e53a4be3dc4dbU,
  0x3e260c40bec3b302U, 0x3e027757bea60c40U, 0x3e9a2ff23e49a129U, 0x3e260c403dd57d76U,
  0x3e31e88d3d0e53a4U, 0xbe3dc4db3e31e88dU, 0x3d0e53a43e260c40U, 0x3e8e53a4bf201e19U,
  0xbd8e53a4bcbdc4dbU, 0x3e260c403f056e6aU, 0xbe827757be557d76U, 0xbf056e6a3e9441cbU,
  0xbe88657dbe260c40U, 0x3edb6b9d3ec3b302U, 0x3e1a2ff2be31e88dU, 0xbe8e53a43ea01e19U,
  0x3e31e88dbdd57d76U, 0x3eb7d6b43d0e53a4U, 0xbc3dc4dbbdbdc4dbU, 0xbea01e1900000000U,
  0xbe260c403d6d3612U, 0x3e0e53a43e49a129U, 0x3e31e88dbebdc4dbU, 0xbe557d763dbdc4dbU,
  0xbea01e193e0e53a4U, 0x3d8e53a43d8e53a4U, 0x3e0e53a4bf1441cbU, 0xbd6d3612bd8e53a4U,
  0xbe6d36123e027757U, 0x3cbdc4dbbf260c40U, 0x3ded3612bdd57d76U, 0xbe9441cbbe79125fU,
  0xbe0e53a4bded3612U, 0x3d0e53a4be8e53a4U, 0x3ebdc4db3ded3612U, 0x3e31e88d3dbdc4dbU,
  0x3d0e53a4U, 0xbd3dc4dbbe9441cbU, 0x3e88657dbe827757U, 0x3e79125fbecf8f50U,
  0x3d8e53a43e9a2ff2U, 0x3e3dc4dbbed57d76U, 0x3ea01e19bd8e53a4U, 0x3cbdc4dbbf0b5c91U,
  0xbded3612bf1a2ff2U, 0xbe027757be6159c4U, 0xbd3dc4dbbebdc4dbU, 0x3e827757bebdc4dbU,
  0x3e0e53a4bebdc4dbU, 0x3d0e53a43e3dc4dbU, 0x3e557d76be9a2ff2U, 0x3e027757bed57d76U,
  0xbe557d76beabfa66U, 0x3da60c403c3dc4dbU, 0xbd0e53a4bedb6b9dU, 0x3e557d76be9a2ff2U,
  0xbf08657dbd8e53a4U, 0xbec3b302be260c40U, 0x3d3dc4db3e8e53a4U, 0x3da60c40bd6d3612U,
  0xbee747eb3d0e53a4U, 0xbe6159c4be0e53a4U, 0xbd8e53a400000000U, 0xbe0e53a43d0e53a4U,
  0xbea01e19be6159c4U, 0xbecf8f50bda60c40U, 0xbd6d36123d0e53a4U, 0x3da60c40bc3dc4dbU,
  0xbd3dc4dbbeabfa66U, 0xbe8e53a43d3dc4dbU, 0x3d6d36123d0e53a4U, 0xbd3dc4db3d3dc4dbU,
  0xbdbdc4dbbe557d76U, 0x3e31e88dbd6d3612U, 0x3d3dc4dbbe027757U, 0x3cbdc4db3e49a129U,
  0xbdd57d76bd0e53a4U, 0x3dbdc4db3dd57d76U, 0x3dbdc4dbbe79125fU, 0xbc3dc4db3dd57d76U,
  0xbd3dc4db3cbdc4dbU, 0x3e1a2ff200000000U, 0xbdd57d76beb7d6b4U, 0x3da60c403d3dc4dbU,
  0xbd0e53a400000000U, 0x3ded36123d8e53a4U, 0xbe260c40be9441cbU, 0xbc3dc4db3cbdc4dbU,
  0xbd6d36123cbdc4dbU, 0x3dd57d763d0e53a4U, 0x3d0e53a4bea01e19U, 0xbd0e53a400000000U,
  0xbda60c403dbdc4dbU, 0x3e0277573c3dc4dbU, 0x3dbdc4dbbe79125fU, 0x3d3dc4dbbda60c40U,
  0xbd8e53a43da60c40U, 0x3e6159c43d0e53a4U, 0x3e6d3612be3dc4dbU, 0x3cbdc4db3cbdc4dbU,
  0xbe88657d3ded3612U, 0x3e0e53a4bc3dc4dbU, 0x3ebdc4dbbe31e88dU, 0xbe49a1293d3dc4dbU,
  0x3e0e53a4U, 0xbe79125f3e0e53a4U, 0xbd0e53a43d6d3612U, 0xbea01e19be1a2ff2U,
  0x3c3dc4dbbc3dc4dbU, 0xbe31e88d3dbdc4dbU, 0xbdbdc4dbbd0e53a4U, 0xbef32439be88657dU,
  0xbe0277573e9441cbU, 0x3e3dc4db3cbdc4dbU, 0xbe31e88dbded3612U, 0xbe49a129bedb6b9dU,
  0x3e6159c43e3dc4dbU, 0x3e6159c43da60c40U, 0xbe260c403da60c40U, 0xbe027757beb1e88dU,
  0x3e8e53a43e027757U, 0x3e6159c43d6d3612U, 0xbeabfa663ded3612U, 0x3ded3612be260c40U,
  0x3e79125f3dd57d76U, 0x3ee159c4bdbdc4dbU, 0xbecf8f503dbdc4dbU, 0xbd6d3612beb1e88dU,
  0x3e0277573dbdc4dbU, 0x3ebdc4db3cbdc4dbU, 0x3e6159c4U, 0x3e6159c4bea01e19U,
  0x3cbdc4db3cbdc4dbU, 0x3ebdc4db3dd57d76U, 0x3da60c403ea60c40U, 0xbd8e53a4be6159c4U,
  0xbda60c403d0e53a4U, 0x3e9a2ff2be027757U, 0xbc3dc4db3e6159c4U, 0x3ded3612be0e53a4U,
  0xbe31e88dbe027757U, 0x3e260c40bd8e53a4U, 0x3c3dc4db3e6159c4U, 0xbd6d3612bd3dc4dbU,
  0xbe3dc4dbbd6d3612U, 0x3e31e88dbe49a129U, 0x3d3dc4db3e49a129U, 0xbdd57d76be260c40U,
  0xbe3dc4dbbc3dc4dbU, 0x3d8e53a4be6159c4U, 0x3e31e88d3e6d3612U, 0xbda60c40bd0e53a4U,
  0x3d8e53a43e027757U, 0xbe79125f3d0e53a4U, 0xbdd57d763d0e53a4U, 0x3cbdc4db3e49a129U,
  0x3e9a2ff2be3dc4dbU, 0xbc3dc4db3e88657dU, 0xbe3dc4dbbc3dc4dbU, 0xbe49a129bd3dc4dbU,
  0xbdbdc4dbbdd57d76U, 0xbea60c40bd3dc4dbU, 0x3d3dc4dbbd8e53a4U, 0x3d0e53a43e827757U,
  0xbe88657dbe9a2ff2U, 0xbf0e53a400000000U, 0x3d3dc4db3c3dc4dbU, 0xbda60c403e027757U,
  0xbf027757be557d76U, 0xbf3dc4dbbda60c40U, 0x3eb7d6b4bd3dc4dbU, 0xbe3dc4db3eabfa66U,
  0xbf1738df3d6d3612U, 0xbf114ab8bd0e53a4U, 0x3dd57d763da60c40U, 0xbd8e53a43cbdc4dbU,
  0xbec9a1293e260c40U, 0xbeb7d6b4bdd57d76U, 0x3e1a2ff23e9441cbU, 0x3d0e53a43da60c40U,
  0xbeb1e88d3e79125fU, 0xbf0277573e1a2ff2U, 0x3c3dc4db3e31e88dU, 0xbd8e53a43d8e53a4U,
  0xbedb6b9d3eb7d6b4U, 0x3d6d3612be3dc4dbU, 0xbc3dc4db3e827757U, 0x3cbdc4db3eb7d6b4U,
  0xbee159c43e6159c4U, 0xbda60c40be260c40U, 0xbe0277573da60c40U, 0x3dd57d76U,
  0xbea01e193ee747ebU, 0x3d3dc4db3cbdc4dbU, 0xbc3dc4db3cbdc4dbU, 0x3d0e53a4bd3dc4dbU,
  0xbe8277573ed57d76U, 0xbe0e53a43ded3612U, 0x3d0e53a4bd3dc4dbU, 0x3ded361200000000U,
  0x3eb1e88d3cbdc4dbU, 0xbded36123e1a2ff2U, 0x3e0e53a43e6d3612U, 0x3c3dc4db3ebdc4dbU,
  0x3e49a129be88657dU, 0xbe49a1293dd57d76U, 0x3ea01e19bdd57d76U, 0x3e31e88d3e027757U,
  0x3e6d36123dd57d76U, 0x3c3dc4db3e8e53a4U, 0xbe9a2ff23d0e53a4U, 0xbe6159c43cbdc4dbU,
  0x3ee747ebbe1a2ff2U, 0x3cbdc4dbbd6d3612U, 0xbef9125fbe49a129U, 0xbea60c40bc3dc4dbU,
  0xbd3dc4db3da60c40U, 0x3e8277573d6d3612U, 0xbe557d763ded3612U, 0xbee747ebbda60c40U,
  0xbea60c4000000000U, 0x3eed3612bd8e53a4U, 0xbe027757bda60c40U, 0xbe260c40be79125fU,
  0xbdbdc4db3dbdc4dbU, 0xbc3dc4db3cbdc4dbU, 0xbe1a2ff23e88657dU, 0xbda60c40be1a2ff2U,
  0xbf08657d3d6d3612U, 0xbd6d3612be557d76U, 0xbea60c403e1a2ff2U, 0xbdbdc4dbbec3b302U,
  0xbee747eb3e49a129U, 0xbe027757be557d76U, 0xbda60c403e9441cbU, 0xbe31e88dbecf8f50U,
  0xbe8e53a43e827757U, 0xbded36123d3dc4dbU, 0x3c3dc4db3ded3612U, 0x3e557d76be027757U,
  0xbeff00863e3dc4dbU, 0xbe557d76bd0e53a4U, 0x3c3dc4db3e027757U, 0x3d3dc4dbbe260c40U,
  0xbe3dc4db3e9441cbU, 0xbe79125f3e027757U, 0x3cbdc4db3eb7d6b4U, 0x3e3dc4dbbeb1e88dU,
  0x3e3dc4db3d8e53a4U, 0xbe79125f3e3dc4dbU, 0x3ded36123e6159c4U, 0xbe6159c43e49a129U,
  0x3e3dc4dbbdd57d76U, 0x3e0e53a4bc3dc4dbU, 0xbe6d36123dd57d76U, 0xbeb1e88dbe260c40U,
  0x3edb6b9d3e6d3612U, 0x3cbdc4db3e260c40U, 0xbded36123e79125fU, 0x3e6d36123ded3612U,
  0x3e9441cb3dbdc4dbU, 0x3e260c40be31e88dU, 0xbe9a2ff2be79125fU, 0xbd6d36123ded3612U,
  0x3cbdc4db3e8e53a4U, 0xbec9a1293f1a2ff2U, 0xbec9a129be6159c4U, 0xbee159c4beb1e88dU,
  0xbe31e88d3e027757U, 0xbda60c403c3dc4dbU, 0xbe6159c4bf1441cbU, 0xbd3dc4dbbdbdc4dbU,
  0xbf2903533e827757U, 0xbee747eb3e557d76U, 0xbcbdc4dbbda60c40U, 0xbda60c403d0e53a4U,
  0xbeb7d6b4bc3dc4dbU, 0xbeb1e88dbe8e53a4U, 0xbc3dc4dbbe8e53a4U, 0xbe79125fbe9441cbU,
  0xbee159c4bda60c40U, 0xbd3dc4dbbea01e19U, 0x3dd57d7600000000U, 0x3ded3612be827757U,
  0xbed57d76be260c40U, 0xbc3dc4dbbe260c40U, 0x3e3dc4dbbe6d3612U, 0x3e49a129be79125fU,
  0x3d0e53a4bdbdc4dbU, 0x3e88657d3d6d3612U, 0x3ea60c40bd0e53a4U, 0x3e88657dbded3612U,
  0x3e6159c43da60c40U, 0x3e49a129bd6d3612U, 0x3e6159c43e027757U, 0x3e49a129bed57d76U,
  0xbec9a129bd8e53a4U, 0x3e31e88d3d3dc4dbU, 0xbea01e193d6d3612U, 0xbe88657dbe1a2ff2U,
  0x3e31e88d3cbdc4dbU, 0xbe827757be260c40U, 0x3eb1e88d3ecf8f50U, 0xbef32439bcbdc4dbU,
  0x3e8e53a4bded3612U, 0xbea60c403dbdc4dbU, 0xbe31e88dbc3dc4dbU, 0xbe027757bd8e53a4U,
  0x3c3dc4dbbda60c40U, 0xbe49a129be1a2ff2U, 0xbedb6b9d3e3dc4dbU, 0xbc3dc4dbbe6d3612U,
  0x3da60c40bd0e53a4U, 0xbd8e53a43e0e53a4U, 0xbf3acdc8be31e88dU, 0x3e6d36123ded3612U,
  0xbe557d763d3dc4dbU, 0xbea01e19bc3dc4dbU, 0xbe9441cbbd6d3612U, 0x3e557d76bd8e53a4U,
  0xbe8e53a43e1a2ff2U, 0xbee747eb3ded3612U, 0xbe027757be3dc4dbU, 0xbd0e53a43cbdc4dbU,
  0xbe0277573e1a2ff2U, 0xbf3acdc83d8e53a4U, 0x3e260c403dbdc4dbU, 0x3e0e53a4bcbdc4dbU,
  0x3d0e53a43e88657dU, 0xbe557d76bc3dc4dbU, 0x3e0277573e557d76U, 0x3da60c40bd3dc4dbU,
  0x3e260c403e49a129U, 0xbe6159c4beb7d6b4U, 0x3dbdc4db3ec3b302U, 0x3ded3612bd8e53a4U,
  0xbdbdc4db3ebdc4dbU, 0x0U, 0x3e6159c43ec9a129U, 0x3d6d3612beb7d6b4U,
  0x3c3dc4db3e9441cbU, 0x3e0e53a4be49a129U, 0x3e6d36123e31e88dU, 0x3e6d3612be1a2ff2U,
  0xbcbdc4dbbded3612U, 0xbd0e53a4bd3dc4dbU, 0xbded36123d0e53a4U, 0xbded3612bc3dc4dbU,
  0xbd6d3612bdbdc4dbU, 0x3da60c403d0e53a4U, 0xbdd57d76bd0e53a4U, 0xbcbdc4db3d3dc4dbU,
  0xbcbdc4db3cbdc4dbU, 0xbdd57d76bdd57d76U, 0xbe49a129bdbdc4dbU, 0xbda60c40bd6d3612U,
  0xbded36123c3dc4dbU, 0xbdd57d763d0e53a4U, 0xbded3612bdbdc4dbU, 0xbe027757bded3612U,
  0xbded361200000000U, 0x3c3dc4db3cbdc4dbU, 0xbe027757be260c40U, 0xbdbdc4dbbdd57d76U,
  0x3cbdc4dbbcbdc4dbU, 0xbc3dc4db3cbdc4dbU, 0xbdd57d76be31e88dU, 0xbd6d3612bded3612U,
  0x3c3dc4dbbd8e53a4U, 0xbdbdc4dbbd6d3612U, 0xbe027757be31e88dU, 0x3d3dc4dbbdbdc4dbU,
  0xbe027757bd0e53a4U, 0xbda60c40bd8e53a4U, 0xbcbdc4db3cbdc4dbU, 0xbd0e53a4bdd57d76U,
  0x3cbdc4dbbda60c40U, 0xbd8e53a4bda60c40U, 0xbd0e53a4be027757U, 0xbd6d3612bd3dc4dbU,
  0xbcbdc4dbbe0e53a4U, 0x3d3dc4dbbded3612U, 0x3d3dc4dbbdd57d76U, 0xbe0e53a43da60c40U,
  0xbd3dc4dbU, 0xbd0e53a4bd8e53a4U, 0xbc3dc4dbbda60c40U, 0xbcbdc4db00000000U,
  0xbdbdc4dbbd8e53a4U, 0x3da60c403d0e53a4U, 0x3da60c40bd8e53a4U, 0x3cbdc4db3d0e53a4U,
  0xbd3dc4dbbd8e53a4U, 0x3d3dc4db3c3dc4dbU, 0xbdd57d76bd0e53a4U, 0xbda60c4000000000U,
  0x3d8e53a4bd3dc4dbU, 0x3c3dc4db3d0e53a4U, 0xbd6d3612bd6d3612U, 0xbd0e53a4bdbdc4dbU,
  0xbc3dc4dbbda60c40U, 0x3d3dc4dbbda60c40U, 0xbda60c40bdbdc4dbU, 0xbdd57d763cbdc4dbU,
  0xbcbdc4dbbc3dc4dbU, 0xbe260c40bd6d3612U, 0x3c3dc4dbbc3dc4dbU, 0x3d3dc4dbbd6d3612U,
  0xbdd57d76bd6d3612U, 0xbe260c40bd6d3612U, 0xbd3dc4dbbd6d3612U, 0xbe0e53a4be1a2ff2U,
  0xbc3dc4dbbe3dc4dbU, 0x3c3dc4db3d3dc4dbU, 0x3d6d3612bdd57d76U, 0xbd3dc4dbbd3dc4dbU,
  0xbcbdc4dbbd6d3612U, 0xbcbdc4dbbd6d3612U, 0xbdbdc4dbU, 0xbe027757bd6d3612U,
  0xbd8e53a4bd0e53a4U, 0xbda60c403d0e53a4U, 0xbd6d361200000000U, 0xbcbdc4dbbdd57d76U,
  0xbd6d3612be6159c4U, 0x3da60c40bd0e53a4U, 0xbda60c403c3dc4dbU, 0x3c3dc4dbbdbdc4dbU,
  0x3d0e53a4bc3dc4dbU, 0xbdbdc4dbbcbdc4dbU, 0xbdbdc4dbbd3dc4dbU, 0x3d6d3612bd8e53a4U,
  0x3cbdc4dbbd0e53a4U, 0x3d3dc4dbbded3612U, 0xbcbdc4db00000000U, 0xbd0e53a400000000U,
  0xbd0e53a4bd8e53a4U, 0xbcbdc4dbbded3612U, 0x3da60c403cbdc4dbU, 0xbe027757bdd57d76U,
  0x3d8e53a4bda60c40U, 0xbda60c403da60c40U, 0xbd0e53a4bd0e53a4U, 0xbd0e53a4bded3612U,
  0xbded3612bd3dc4dbU, 0xbe1a2ff2bd0e53a4U, 0x3c3dc4dbbded3612U, 0xbd0e53a4bc3dc4dbU,
  0xbded3612be027757U, 0xbc3dc4dbbe260c40U, 0xbd0e53a4bd3dc4dbU, 0xbcbdc4dbbe027757U,
  0x3c3dc4dbbded3612U, 0x3c3dc4db3d6d3612U, 0xbcbdc4dbbda60c40U, 0xbda60c40bd8e53a4U,
  0x3d8e53a43d6d3612U, 0xbd8e53a43c3dc4dbU, 0xbe49a129be31e88dU, 0x3d6d3612bcbdc4dbU,
  0xbe827757U, 0xbcbdc4dbbd3dc4dbU, 0xbcbdc4dbbded3612U, 0x3dd57d76bd8e53a4U,
  0xbe027757be49a129U, 0xbdbdc4dbU, 0xbe0277573d8e53a4U, 0x3d6d3612bda60c40U,
  0xbd8e53a4bc3dc4dbU, 0x3d6d3612bc3dc4dbU, 0xbe0277573d6d3612U, 0xbd8e53a4bd8e53a4U,
  0xbdbdc4dbU, 0xbcbdc4dbbd8e53a4U, 0xbda60c4000000000U, 0xbd0e53a4be027757U,
  0x3d3dc4dbbdbdc4dbU, 0x3d8e53a4be1a2ff2U, 0xbd3dc4dbbe0e53a4U, 0xbd8e53a4bd3dc4dbU,
  0xbcbdc4dbbd6d3612U, 0xbd6d361200000000U, 0xbdd57d76bc3dc4dbU, 0xbc3dc4dbbd8e53a4U,
  0xbd6d3612be027757U, 0x3cbdc4dbbd0e53a4U, 0xbd0e53a4bda60c40U, 0x3c3dc4dbU,
  0x3c3dc4dbbd0e53a4U, 0xbda60c403dd57d76U, 0xbc3dc4dbbda60c40U, 0x3d6d3612bc3dc4dbU,
  0x3dd57d76U, 0xbcbdc4db3da60c40U, 0x3cbdc4dbbded3612U, 0xbc3dc4dbbc3dc4dbU,
  0x3dd57d76bc3dc4dbU, 0x3cbdc4db3cbdc4dbU, 0xbded3612be1a2ff2U, 0x3c3dc4dbbcbdc4dbU,
  0xbded3612U, 0xbd6d3612bc3dc4dbU, 0xbdbdc4dbbc3dc4dbU, 0x3d8e53a43cbdc4dbU,
  0xbe0e53a4be49a129U, 0xbdbdc4dbbd3dc4dbU, 0xbdbdc4dbbd3dc4dbU, 0xbd8e53a43c3dc4dbU,
  0xbdd57d76be3dc4dbU, 0x3cbdc4dbbc3dc4dbU, 0xbcbdc4db3d3dc4dbU, 0xbd0e53a43d3dc4dbU,
  0xbd0e53a4U, 0xbd3dc4dbbd3dc4dbU, 0xbcbdc4dbbe1a2ff2U, 0xbdd57d76bd0e53a4U,
  0x3d0e53a4be1a2ff2U, 0xbdbdc4dbbd3dc4dbU, 0xbdd57d763cbdc4dbU, 0x3d0e53a4bd3dc4dbU,
  0x3d0e53a4bdbdc4dbU, 0x3d3dc4dbU, 0xbcbdc4db3d0e53a4U, 0xbdbdc4dbbd3dc4dbU,
  0xbcbdc4dbbe0e53a4U, 0xbd0e53a4be557d76U, 0xbd0e53a4bd0e53a4U, 0x3d3dc4dbbcbdc4dbU,
  0x3d3dc4dbbd3dc4dbU, 0xbcbdc4dbbda60c40U, 0xbd6d36123dd57d76U, 0xbc3dc4dbbe260c40U,
  0x3cbdc4dbbe260c40U, 0xbc3dc4dbbdd57d76U, 0xbe260c4000000000U, 0xbd8e53a43c3dc4dbU,
  0x3d0e53a4be31e88dU, 0xbc3dc4dbbcbdc4dbU, 0x3d8e53a4be31e88dU, 0x3ded3612bdd57d76U,
  0x3c3dc4dbbded3612U, 0xbd0e53a43dd57d76U, 0x3d8e53a4bd6d3612U, 0xbcbdc4dbbded3612U,
  0xbd0e53a4be260c40U, 0xbdd57d76bd3dc4dbU, 0xbd0e53a4bc3dc4dbU, 0x3d8e53a43d8e53a4U,
  0x3d3dc4db3c3dc4dbU, 0x0U, 0x3cbdc4dbbcbdc4dbU, 0x3d3dc4dbbe1a2ff2U,
  0x3cbdc4dbbe3dc4dbU, 0xbcbdc4db3d0e53a4U, 0xbded3612bded3612U, 0xbd8e53a4bd6d3612U,
  0xbdbdc4dbbd8e53a4U, 0xbd6d3612bc3dc4dbU, 0xbe027757bd3dc4dbU, 0xbc3dc4dbbd0e53a4U,
  0xbd3dc4dbbd3dc4dbU, 0xbcbdc4db3d0e53a4U, 0xbd8e53a4bd8e53a4U, 0x3d8e53a4bd3dc4dbU,
  0xbe02775700000000U, 0xbe260c40bdd57d76U, 0xbd8e53a4be3dc4dbU, 0x3cbdc4dbbe027757U,
  0x3d6d3612bdd57d76U, 0x3cbdc4dbbd3dc4dbU, 0xbd8e53a4bcbdc4dbU, 0x3d3dc4dbbc3dc4dbU,
  0x3cbdc4dbU, 0xbded3612be027757U, 0x3d3dc4dbbe31e88dU, 0x3dd57d76bcbdc4dbU,
  0xbded3612bd0e53a4U, 0xbe027757bded3612U, 0xbc3dc4dbbe260c40U, 0xbe027757bdbdc4dbU,
  0xbded36123cbdc4dbU, 0xbe0e53a4bd6d3612U, 0xbd0e53a43d0e53a4U, 0xbd8e53a4bd8e53a4U,
  0x3d3dc4dbbd6d3612U, 0x3d0e53a43d3dc4dbU, 0xbda60c40be49a129U, 0x3c3dc4dbbd8e53a4U,
  0xbd3dc4dbbcbdc4dbU, 0xbdd57d763d6d3612U, 0xbd0e53a4be0e53a4U, 0x3d8e53a43d6d3612U,
  0x3da60c403d0e53a4U, 0xbe1a2ff2U, 0xbded3612bd8e53a4U, 0x3d0e53a43c3dc4dbU,
  0xbd3dc4db3d8e53a4U, 0xbda60c403d3dc4dbU, 0xbda60c40bdbdc4dbU, 0xbe027757bdd57d76U,
  0xbd0e53a43c3dc4dbU, 0x3d6d36123c3dc4dbU, 0xbe027757bd3dc4dbU, 0xbe0e53a4bd3dc4dbU,
  0xbd0e53a4bcbdc4dbU, 0x3cbdc4db3d3dc4dbU, 0x3d3dc4dbbded3612U, 0x3d0e53a4be260c40U,
  0xbe027757bdd57d76U, 0xbe0e53a4bc3dc4dbU, 0x3d3dc4dbbe260c40U, 0xbe0e53a4be0e53a4U,
  0xbd3dc4db3d0e53a4U, 0xbe027757bdbdc4dbU, 0xbded3612U, 0xbda60c40bcbdc4dbU,
  0x3dbdc4dbU, 0xbd6d3612be3dc4dbU, 0xbd8e53a43d3dc4dbU, 0xbd0e53a4bc3dc4dbU,
  0x3d3dc4dbU, 0x3da60c403ded3612U, 0xbe1a2ff2be260c40U, 0xbe0e53a4bd8e53a4U,
  0xbdd57d76bd8e53a4U, 0x3c3dc4dbU, 0xbdbdc4dbbd0e53a4U, 0x3d0e53a43dbdc4dbU,
  0xbdd57d76U, 0xbdbdc4db3d3dc4dbU, 0xbe260c40bd0e53a4U, 0xbda60c40bd3dc4dbU,
